TRT-101401-EntropyCalibration2
input: 3cb1ab7d
/conv1/Conv_output_0: 3d1b8246
/relu/Relu_output_0: 3d2f5a18
/maxpool1/MaxPool_output_0: 3d2f5a18
/fire2/conv1/Conv_output_0: 3d5831bb
/fire2/relu1/Relu_output_0: 3cf033d7
/fire2/conv2/Conv_output_0: 3cfe66fb
/fire2/conv3/Conv_output_0: 3cf113a9
/fire2/Concat_output_0: 3cf082d7
/fire2/relu2/Relu_output_0: 3cd919cb
/fire3/conv1/Conv_output_0: 3d166203
/fire3/relu1/Relu_output_0: 3d166203
/fire3/conv2/Conv_output_0: 3cd48bc3
/fire3/conv3/Conv_output_0: 3cf7ccab
/fire3/Concat_output_0: 3ce41890
/fire3/relu2/Relu_output_0: 3cdac93a
/fire4/conv1/Conv_output_0: 3d11a2cf
/fire4/relu1/Relu_output_0: 3d182be0
/fire4/conv2/Conv_output_0: 3c77ec81
/fire4/conv3/Conv_output_0: 3cc89093
/fire4/Concat_output_0: 3cbd57c2
/fire4/relu2/Relu_output_0: 3cb232c2
/maxpool2/MaxPool_output_0: 3cb232c2
/fire5/conv1/Conv_output_0: 3d225bde
/fire5/relu1/Relu_output_0: 3d225bde
/fire5/conv2/Conv_output_0: 3c6982a6
/fire5/conv3/Conv_output_0: 3cc5fd46
/fire5/Concat_output_0: 3ca74b85
/fire5/relu2/Relu_output_0: 3cb22df5
/fire6/conv1/Conv_output_0: 3d1b427a
/fire6/relu1/Relu_output_0: 3d27bfc8
/fire6/conv2/Conv_output_0: 3c322477
/fire6/conv3/Conv_output_0: 3cc5b2f5
/fire6/Concat_output_0: 3ca76afa
/fire6/relu2/Relu_output_0: 3ca5750d
/fire7/conv1/Conv_output_0: 3d258ecb
/fire7/relu1/Relu_output_0: 3d395c67
/fire7/conv2/Conv_output_0: 3c2144bb
/fire7/conv3/Conv_output_0: 3ccf5b6b
/fire7/Concat_output_0: 3cc691ea
/fire7/relu2/Relu_output_0: 3caf8b05
/fire8/conv1/Conv_output_0: 3d291844
/fire8/relu1/Relu_output_0: 3d3acbd2
/fire8/conv2/Conv_output_0: 3bc9a25d
/fire8/conv3/Conv_output_0: 3cea44e8
/fire8/Concat_output_0: 3c91e438
/fire8/relu2/Relu_output_0: 3cea44e8
/maxpool3/MaxPool_output_0: 3cea44e8
/fire9/conv1/Conv_output_0: 3c874088
/fire9/relu1/Relu_output_0: 3d4b3ad9
/fire9/conv2/Conv_output_0: 3a93874c
/fire9/conv3/Conv_output_0: 3d1921dd
/fire9/Concat_output_0: 3cd13d6c
/fire9/relu2/Relu_output_0: 3d126f6f
/conv10/Conv_output_0: 3e76b8b2
/avg_pool/AveragePool_output_0: 3e76b8b2
logits: 3e281d06
