TRT-101401-EntropyCalibration2
input: 3cb1ab7d
/conv1/Conv_output_0: 3d26be3c
/relu/Relu_output_0: 3d2f3b99
/maxpool1/MaxPool_output_0: 3d2f3b99
/fire2/conv1/Conv_output_0: 3d5831bb
/fire2/relu1/Relu_output_0: 3cf85a96
/fire2/conv2/Conv_output_0: 3cfe66fb
/fire2/conv3/Conv_output_0: 3ceeb087
/fire2/Concat_output_0: 3cfee0ec
/fire2/relu2/Relu_output_0: 3cd919cb
/fire3/conv1/Conv_output_0: 3d16533c
/fire3/relu1/Relu_output_0: 3d16533c
/fire3/conv2/Conv_output_0: 3cd510aa
/fire3/conv3/Conv_output_0: 3cf846c8
/fire3/Concat_output_0: 3ce3f978
/fire3/relu2/Relu_output_0: 3cdac961
/fire4/conv1/Conv_output_0: 3d130270
/fire4/relu1/Relu_output_0: 3d130270
/fire4/conv2/Conv_output_0: 3c7795b1
/fire4/conv3/Conv_output_0: 3cc83ae8
/fire4/Concat_output_0: 3cbaa443
/fire4/relu2/Relu_output_0: 3cadbca4
/maxpool2/MaxPool_output_0: 3cadbca4
/fire5/conv1/Conv_output_0: 3d225bde
/fire5/relu1/Relu_output_0: 3d225bde
/fire5/conv2/Conv_output_0: 3c6982a6
/fire5/conv3/Conv_output_0: 3cc6d35a
/fire5/Concat_output_0: 3ca82fc1
/fire5/relu2/Relu_output_0: 3cb22df5
/fire6/conv1/Conv_output_0: 3d1b3087
/fire6/relu1/Relu_output_0: 3d1b05b1
/fire6/conv2/Conv_output_0: 3c6860ff
/fire6/conv3/Conv_output_0: 3cc6263f
/fire6/Concat_output_0: 3ca9ab3b
/fire6/relu2/Relu_output_0: 3ca972b6
/fire7/conv1/Conv_output_0: 3d2592e4
/fire7/relu1/Relu_output_0: 3d392718
/fire7/conv2/Conv_output_0: 3c2a9500
/fire7/conv3/Conv_output_0: 3cc539e9
/fire7/Concat_output_0: 3cc539e9
/fire7/relu2/Relu_output_0: 3caf7f2e
/fire8/conv1/Conv_output_0: 3d2b345d
/fire8/relu1/Relu_output_0: 3d2eaa58
/fire8/conv2/Conv_output_0: 3bc9a25d
/fire8/conv3/Conv_output_0: 3cdc49cd
/fire8/Concat_output_0: 3c7abe9c
/fire8/relu2/Relu_output_0: 3cfb5b2c
/maxpool3/MaxPool_output_0: 3cfb5b2c
/fire9/conv1/Conv_output_0: 3cc3e4e9
/fire9/relu1/Relu_output_0: 3d4bd355
/fire9/conv2/Conv_output_0: 3a93874c
/fire9/conv3/Conv_output_0: 3d10bb63
/fire9/Concat_output_0: 3cd29345
/fire9/relu2/Relu_output_0: 3d1dacb6
/conv10/Conv_output_0: 3e76993e
/avg_pool/AveragePool_output_0: 3e76993e
logits: 3e28213c
