TRT-101401-EntropyCalibration2
input: 3cbaab4e
/conv1/Conv_output_0: 3d176467
/relu/Relu_output_0: 3d39f247
/maxpool1/MaxPool_output_0: 3d39f247
/fire2/conv1/Conv_output_0: 3d582b8c
/fire2/relu1/Relu_output_0: 3d04b5c6
/fire2/conv2/Conv_output_0: 3cf63454
/fire2/conv3/Conv_output_0: 3cf34abd
/fire2/Concat_output_0: 3cf5ded1
/fire2/relu2/Relu_output_0: 3cee9a24
/fire3/conv1/Conv_output_0: 3d0f4566
/fire3/relu1/Relu_output_0: 3d0f4566
/fire3/conv2/Conv_output_0: 3cd39c20
/fire3/conv3/Conv_output_0: 3d05a1e6
/fire3/Concat_output_0: 3ce9072b
/fire3/relu2/Relu_output_0: 3cd5b1c4
/fire4/conv1/Conv_output_0: 3d0df68c
/fire4/relu1/Relu_output_0: 3d1bd86b
/fire4/conv2/Conv_output_0: 3c735271
/fire4/conv3/Conv_output_0: 3ccc6ffa
/fire4/Concat_output_0: 3cba4c51
/fire4/relu2/Relu_output_0: 3ca60bfd
/maxpool2/MaxPool_output_0: 3ca60bfd
/fire5/conv1/Conv_output_0: 3d25a151
/fire5/relu1/Relu_output_0: 3d220120
/fire5/conv2/Conv_output_0: 3c73ffee
/fire5/conv3/Conv_output_0: 3ce03fde
/fire5/Concat_output_0: 3cb34d33
/fire5/relu2/Relu_output_0: 3ca74345
/fire6/conv1/Conv_output_0: 3d2119dd
/fire6/relu1/Relu_output_0: 3d1f5e01
/fire6/conv2/Conv_output_0: 3c300827
/fire6/conv3/Conv_output_0: 3cbb3047
/fire6/Concat_output_0: 3cb7a32c
/fire6/relu2/Relu_output_0: 3ca478f7
/fire7/conv1/Conv_output_0: 3d20b385
/fire7/relu1/Relu_output_0: 3d4af343
/fire7/conv2/Conv_output_0: 3c0df421
/fire7/conv3/Conv_output_0: 3ccdf725
/fire7/Concat_output_0: 3ccdd1d1
/fire7/relu2/Relu_output_0: 3caa466e
/fire8/conv1/Conv_output_0: 3d2e4a04
/fire8/relu1/Relu_output_0: 3d28270e
/fire8/conv2/Conv_output_0: 3bb4a5c7
/fire8/conv3/Conv_output_0: 3cfaae49
/fire8/Concat_output_0: 3c966892
/fire8/relu2/Relu_output_0: 3cf7288a
/maxpool3/MaxPool_output_0: 3cf7288a
/fire9/conv1/Conv_output_0: 3c99c0ea
/fire9/relu1/Relu_output_0: 3d0cb3ad
/fire9/conv2/Conv_output_0: 3a439f56
/fire9/conv3/Conv_output_0: 3d1ea4b7
/fire9/Concat_output_0: 3ce797a0
/fire9/relu2/Relu_output_0: 3d080b6e
/conv10/Conv_output_0: 3e81fe03
/avg_pool/AveragePool_output_0: 3e81fe03
logits: 3e113c9b
