TRT-101401-EntropyCalibration2
input: 3cbaab4e
/conv1/Conv_output_0: 3d2856ed
/relu/Relu_output_0: 3d3ea5d3
/maxpool1/MaxPool_output_0: 3d3ea5d3
/fire2/conv1/Conv_output_0: 3d5d50a0
/fire2/relu1/Relu_output_0: 3cf04b79
/fire2/conv2/Conv_output_0: 3d02079e
/fire2/conv3/Conv_output_0: 3d09844e
/fire2/Concat_output_0: 3d02079e
/fire2/relu2/Relu_output_0: 3d019b27
/fire3/conv1/Conv_output_0: 3d1260a7
/fire3/relu1/Relu_output_0: 3d1260a7
/fire3/conv2/Conv_output_0: 3ce020cc
/fire3/conv3/Conv_output_0: 3d09f316
/fire3/Concat_output_0: 3d01b1a9
/fire3/relu2/Relu_output_0: 3ccf32b6
/fire4/conv1/Conv_output_0: 3d0c2457
/fire4/relu1/Relu_output_0: 3d0ae571
/fire4/conv2/Conv_output_0: 3c613ce0
/fire4/conv3/Conv_output_0: 3cd2518e
/fire4/Concat_output_0: 3cc0474d
/fire4/relu2/Relu_output_0: 3cada5b9
/maxpool2/MaxPool_output_0: 3cada5b9
/fire5/conv1/Conv_output_0: 3d3e341b
/fire5/relu1/Relu_output_0: 3d15dd7f
/fire5/conv2/Conv_output_0: 3c89859e
/fire5/conv3/Conv_output_0: 3cb69d27
/fire5/Concat_output_0: 3cb69d27
/fire5/relu2/Relu_output_0: 3ca8882e
/fire6/conv1/Conv_output_0: 3d08f548
/fire6/relu1/Relu_output_0: 3d0fa755
/fire6/conv2/Conv_output_0: 3c671b09
/fire6/conv3/Conv_output_0: 3cc110f4
/fire6/Concat_output_0: 3cb3fe5d
/fire6/relu2/Relu_output_0: 3cc3a19b
/fire7/conv1/Conv_output_0: 3d0cfa8a
/fire7/relu1/Relu_output_0: 3d3af381
/fire7/conv2/Conv_output_0: 3c2d0042
/fire7/conv3/Conv_output_0: 3cc70e85
/fire7/Concat_output_0: 3ca6288b
/fire7/relu2/Relu_output_0: 3ca674a3
/fire8/conv1/Conv_output_0: 3d1646a7
/fire8/relu1/Relu_output_0: 3d2bd1e1
/fire8/conv2/Conv_output_0: 3c25a023
/fire8/conv3/Conv_output_0: 3cd1cce2
/fire8/Concat_output_0: 3cb362c3
/fire8/relu2/Relu_output_0: 3cac3e79
/maxpool3/MaxPool_output_0: 3cac3e79
/fire9/conv1/Conv_output_0: 3d1d59b8
/fire9/relu1/Relu_output_0: 3d1e8cd3
/fire9/conv2/Conv_output_0: 3bb8f931
/fire9/conv3/Conv_output_0: 3d132ff1
/fire9/Concat_output_0: 3d132ff1
/fire9/relu2/Relu_output_0: 3d201ae8
/conv10/Conv_output_0: 3e8d3f70
/avg_pool/AveragePool_output_0: 3e8d3f70
logits: 3e230a1a
