TRT-101401-EntropyCalibration2
input: 3cb1ab7d
/conv1/Conv_output_0: 3d1f7088
/relu/Relu_output_0: 3d1f7088
/maxpool1/MaxPool_output_0: 3d1f7088
/fire2/conv1/Conv_output_0: 3d5cba38
/fire2/relu1/Relu_output_0: 3ced3902
/fire2/conv2/Conv_output_0: 3cfd6b4a
/fire2/conv3/Conv_output_0: 3cfb13b7
/fire2/Concat_output_0: 3cfd6b06
/fire2/relu2/Relu_output_0: 3cf2830c
/fire3/conv1/Conv_output_0: 3d17a485
/fire3/relu1/Relu_output_0: 3d222612
/fire3/conv2/Conv_output_0: 3ccf9e5f
/fire3/conv3/Conv_output_0: 3cf3b2ff
/fire3/Concat_output_0: 3cebc57e
/fire3/relu2/Relu_output_0: 3cd61e27
/fire4/conv1/Conv_output_0: 3d0b146d
/fire4/relu1/Relu_output_0: 3d0de479
/fire4/conv2/Conv_output_0: 3c6eecd5
/fire4/conv3/Conv_output_0: 3cd02272
/fire4/Concat_output_0: 3cbda3ab
/fire4/relu2/Relu_output_0: 3caf2143
/maxpool2/MaxPool_output_0: 3caf2143
/fire5/conv1/Conv_output_0: 3d1d5e4f
/fire5/relu1/Relu_output_0: 3d1caab5
/fire5/conv2/Conv_output_0: 3c870b97
/fire5/conv3/Conv_output_0: 3cc69059
/fire5/Concat_output_0: 3cbe349d
/fire5/relu2/Relu_output_0: 3cb178a7
/fire6/conv1/Conv_output_0: 3d110543
/fire6/relu1/Relu_output_0: 3d13a28f
/fire6/conv2/Conv_output_0: 3c7372e3
/fire6/conv3/Conv_output_0: 3cc1dfba
/fire6/Concat_output_0: 3cae97fa
/fire6/relu2/Relu_output_0: 3ca97522
/fire7/conv1/Conv_output_0: 3d23d76b
/fire7/relu1/Relu_output_0: 3d2dbe95
/fire7/conv2/Conv_output_0: 3c2d8b1e
/fire7/conv3/Conv_output_0: 3ccd98c8
/fire7/Concat_output_0: 3ca24d59
/fire7/relu2/Relu_output_0: 3caf9b7a
/fire8/conv1/Conv_output_0: 3d293f54
/fire8/relu1/Relu_output_0: 3d28ddcc
/fire8/conv2/Conv_output_0: 3c281c51
/fire8/conv3/Conv_output_0: 3cd79bab
/fire8/Concat_output_0: 3cb33af8
/fire8/relu2/Relu_output_0: 3cb33af8
/maxpool3/MaxPool_output_0: 3cb33af8
/fire9/conv1/Conv_output_0: 3d3401b9
/fire9/relu1/Relu_output_0: 3d44b7b4
/fire9/conv2/Conv_output_0: 3bde9ef5
/fire9/conv3/Conv_output_0: 3d2d90bf
/fire9/Concat_output_0: 3d0b86b6
/fire9/relu2/Relu_output_0: 3d227c7b
/conv10/Conv_output_0: 3e937059
/avg_pool/AveragePool_output_0: 3e937059
logits: 3e43585b
