TRT-101401-EntropyCalibration2
input: 3cb1ab7d
/conv1/Conv_output_0: 3d1a8136
/relu/Relu_output_0: 3d1f6a0f
/maxpool1/MaxPool_output_0: 3d1f6a0f
/fire2/conv1/Conv_output_0: 3d5cba38
/fire2/relu1/Relu_output_0: 3ced3902
/fire2/conv2/Conv_output_0: 3cfd6b4a
/fire2/conv3/Conv_output_0: 3cf22baa
/fire2/Concat_output_0: 3cfd6b4a
/fire2/relu2/Relu_output_0: 3cf2830c
/fire3/conv1/Conv_output_0: 3d1e2564
/fire3/relu1/Relu_output_0: 3d1a354f
/fire3/conv2/Conv_output_0: 3cd04229
/fire3/conv3/Conv_output_0: 3d023988
/fire3/Concat_output_0: 3ce7761a
/fire3/relu2/Relu_output_0: 3cd61e27
/fire4/conv1/Conv_output_0: 3d0b146d
/fire4/relu1/Relu_output_0: 3d0de479
/fire4/conv2/Conv_output_0: 3c698e91
/fire4/conv3/Conv_output_0: 3cd004bf
/fire4/Concat_output_0: 3cbc7f6c
/fire4/relu2/Relu_output_0: 3caf811d
/maxpool2/MaxPool_output_0: 3caf811d
/fire5/conv1/Conv_output_0: 3d1d9523
/fire5/relu1/Relu_output_0: 3d1caab5
/fire5/conv2/Conv_output_0: 3c870b97
/fire5/conv3/Conv_output_0: 3cca945d
/fire5/Concat_output_0: 3cbe75d6
/fire5/relu2/Relu_output_0: 3cb178a7
/fire6/conv1/Conv_output_0: 3d0d60c3
/fire6/relu1/Relu_output_0: 3d155fa6
/fire6/conv2/Conv_output_0: 3c739412
/fire6/conv3/Conv_output_0: 3cc1ed64
/fire6/Concat_output_0: 3cb9d7d5
/fire6/relu2/Relu_output_0: 3caa0ac1
/fire7/conv1/Conv_output_0: 3d23d76b
/fire7/relu1/Relu_output_0: 3d2dbe95
/fire7/conv2/Conv_output_0: 3c45938e
/fire7/conv3/Conv_output_0: 3cce39c9
/fire7/Concat_output_0: 3cb28b07
/fire7/relu2/Relu_output_0: 3caf7763
/fire8/conv1/Conv_output_0: 3d293f54
/fire8/relu1/Relu_output_0: 3d28ddcc
/fire8/conv2/Conv_output_0: 3c21557b
/fire8/conv3/Conv_output_0: 3cc6497d
/fire8/Concat_output_0: 3cae1294
/fire8/relu2/Relu_output_0: 3c9e4250
/maxpool3/MaxPool_output_0: 3c9e4250
/fire9/conv1/Conv_output_0: 3d30bad7
/fire9/relu1/Relu_output_0: 3d46178b
/fire9/conv2/Conv_output_0: 3bde9ef5
/fire9/conv3/Conv_output_0: 3d0a3796
/fire9/Concat_output_0: 3d0a3796
/fire9/relu2/Relu_output_0: 3d1eb73c
/conv10/Conv_output_0: 3e936243
/avg_pool/AveragePool_output_0: 3e936243
logits: 3e4364b6
