TRT-101401-EntropyCalibration2
input: 3cbaab4e
/conv1/Conv_output_0: 3d26c8a8
/Relu_output_0: 3d26c8a8
/layer1/layer1.0/conv1/Conv_output_0: 3d230662
/layer1/layer1.0/Relu_output_0: 3d04b3a8
/layer1/layer1.0/conv2/Conv_output_0: 3d3cbe08
/layer1/layer1.0/Add_output_0: 3d50890a
/layer1/layer1.0/Relu_1_output_0: 3d50890a
/layer1/layer1.1/conv1/Conv_output_0: 3d126bcb
/layer1/layer1.1/Relu_output_0: 3cf15abe
/layer1/layer1.1/conv2/Conv_output_0: 3d02d4be
/layer1/layer1.1/Add_output_0: 3d82bd7b
/layer1/layer1.1/Relu_1_output_0: 3d93fb0a
/layer1/layer1.2/conv1/Conv_output_0: 3d0d6eb1
/layer1/layer1.2/Relu_output_0: 3cbab5a6
/layer1/layer1.2/conv2/Conv_output_0: 3d09bb38
/layer1/layer1.2/Add_output_0: 3d91279d
/layer1/layer1.2/Relu_1_output_0: 3d9fe323
/layer1/layer1.3/conv1/Conv_output_0: 3cf909f2
/layer1/layer1.3/Relu_output_0: 3c81a6c5
/layer1/layer1.3/conv2/Conv_output_0: 3cf2957a
/layer1/layer1.3/Add_output_0: 3db36cd8
/layer1/layer1.3/Relu_1_output_0: 3db36cd8
/layer1/layer1.4/conv1/Conv_output_0: 3d0c6734
/layer1/layer1.4/Relu_output_0: 3ce1308a
/layer1/layer1.4/conv2/Conv_output_0: 3d556311
/layer1/layer1.4/Add_output_0: 3db8fddb
/layer1/layer1.4/Relu_1_output_0: 3db8fddb
/layer2/layer2.0/conv1/Conv_output_0: 3d032278
/layer2/layer2.0/Relu_output_0: 3d032278
/layer2/layer2.0/conv2/Conv_output_0: 3d365f6c
/layer2/layer2.0/shortcut/shortcut.0/Conv_output_0: 3d180fce
/layer2/layer2.0/Add_output_0: 3d945fe4
/layer2/layer2.0/Relu_1_output_0: 3da97ea2
/layer2/layer2.1/conv1/Conv_output_0: 3d188bf3
/layer2/layer2.1/Relu_output_0: 3cc53258
/layer2/layer2.1/conv2/Conv_output_0: 3d06ca2e
/layer2/layer2.1/Add_output_0: 3da15ae9
/layer2/layer2.1/Relu_1_output_0: 3da7841c
/layer2/layer2.2/conv1/Conv_output_0: 3ce5242c
/layer2/layer2.2/Relu_output_0: 3cb630a9
/layer2/layer2.2/conv2/Conv_output_0: 3d0cc8ae
/layer2/layer2.2/Add_output_0: 3da0adbf
/layer2/layer2.2/Relu_1_output_0: 3da0adbf
/layer2/layer2.3/conv1/Conv_output_0: 3ce8d1b3
/layer2/layer2.3/Relu_output_0: 3cb8bcef
/layer2/layer2.3/conv2/Conv_output_0: 3d216a87
/layer2/layer2.3/Add_output_0: 3db13b15
/layer2/layer2.3/Relu_1_output_0: 3dc29b95
/layer2/layer2.4/conv1/Conv_output_0: 3ccc070f
/layer2/layer2.4/Relu_output_0: 3cb3dfda
/layer2/layer2.4/conv2/Conv_output_0: 3d26c498
/layer2/layer2.4/Add_output_0: 3dbcc3e9
/layer2/layer2.4/Relu_1_output_0: 3dd1046a
/layer3/layer3.0/conv1/Conv_output_0: 3d04288d
/layer3/layer3.0/Relu_output_0: 3d0612a8
/layer3/layer3.0/conv2/Conv_output_0: 3d3d610d
/layer3/layer3.0/shortcut/shortcut.0/Conv_output_0: 3cf6bd3d
/layer3/layer3.0/Add_output_0: 3d731a3b
/layer3/layer3.0/Relu_1_output_0: 3d7aef95
/layer3/layer3.1/conv1/Conv_output_0: 3d10112f
/layer3/layer3.1/Relu_output_0: 3cbf2a7d
/layer3/layer3.1/conv2/Conv_output_0: 3d3ec065
/layer3/layer3.1/Add_output_0: 3d833f51
/layer3/layer3.1/Relu_1_output_0: 3d833f51
/layer3/layer3.2/conv1/Conv_output_0: 3cfd146d
/layer3/layer3.2/Relu_output_0: 3cf43056
/layer3/layer3.2/conv2/Conv_output_0: 3d9c6717
/layer3/layer3.2/Add_output_0: 3da10b43
/layer3/layer3.2/Relu_1_output_0: 3df07e79
/layer3/layer3.3/conv1/Conv_output_0: 3d1610d3
/layer3/layer3.3/Relu_output_0: 3d2ad608
/layer3/layer3.3/conv2/Conv_output_0: 3d3611d4
/layer3/layer3.3/Add_output_0: 3e1b9a0b
/layer3/layer3.3/Relu_1_output_0: 3e073c05
/layer3/layer3.4/conv1/Conv_output_0: 3cc0d004
/layer3/layer3.4/Relu_output_0: 3cdbd201
/layer3/layer3.4/conv2/Conv_output_0: 3bc03699
/layer3/layer3.4/Add_output_0: 3dfa08d2
/layer3/layer3.4/Relu_1_output_0: 3e271b13
/avgpool/GlobalAveragePool_output_0: 3d473429
/Reshape_output_0: 3d473429
fc.weight_output: 3bf22e80
/fc/Gemm_output: 3e218d11
fc.bias_output: 3a26a88f
ONNXTRT_Broadcast_output: 3a26a88f
logits: 3e40f259
