TRT-101401-EntropyCalibration2
input: 3cb1ab7d
/conv1/Conv_output_0: 3d264ef1
/Relu_output_0: 3d264ef1
/layer1/layer1.0/conv1/Conv_output_0: 3d223edc
/layer1/layer1.0/Relu_output_0: 3d138a29
/layer1/layer1.0/conv2/Conv_output_0: 3d32c684
/layer1/layer1.0/Add_output_0: 3d545137
/layer1/layer1.0/Relu_1_output_0: 3d4c0e2a
/layer1/layer1.1/conv1/Conv_output_0: 3d10344a
/layer1/layer1.1/Relu_output_0: 3cf0c8b4
/layer1/layer1.1/conv2/Conv_output_0: 3d0b0aa5
/layer1/layer1.1/Add_output_0: 3d822be2
/layer1/layer1.1/Relu_1_output_0: 3d89a18f
/layer1/layer1.2/conv1/Conv_output_0: 3d086ff8
/layer1/layer1.2/Relu_output_0: 3cb8c1ec
/layer1/layer1.2/conv2/Conv_output_0: 3d0e4a23
/layer1/layer1.2/Add_output_0: 3d95b480
/layer1/layer1.2/Relu_1_output_0: 3d95b480
/layer1/layer1.3/conv1/Conv_output_0: 3cfb9ba0
/layer1/layer1.3/Relu_output_0: 3c8ae86d
/layer1/layer1.3/conv2/Conv_output_0: 3cf63c7f
/layer1/layer1.3/Add_output_0: 3dae61f3
/layer1/layer1.3/Relu_1_output_0: 3db195f4
/layer1/layer1.4/conv1/Conv_output_0: 3d1373b7
/layer1/layer1.4/Relu_output_0: 3cecb91a
/layer1/layer1.4/conv2/Conv_output_0: 3d60488b
/layer1/layer1.4/Add_output_0: 3db0c9f7
/layer1/layer1.4/Relu_1_output_0: 3db0c9f7
/layer2/layer2.0/conv1/Conv_output_0: 3d0dabda
/layer2/layer2.0/Relu_output_0: 3d112614
/layer2/layer2.0/conv2/Conv_output_0: 3d388e7f
/layer2/layer2.0/shortcut/shortcut.0/Conv_output_0: 3d0d9634
/layer2/layer2.0/Add_output_0: 3d97b51b
/layer2/layer2.0/Relu_1_output_0: 3d9df0db
/layer2/layer2.1/conv1/Conv_output_0: 3d03f68c
/layer2/layer2.1/Relu_output_0: 3cdb1a79
/layer2/layer2.1/conv2/Conv_output_0: 3d0147ca
/layer2/layer2.1/Add_output_0: 3da3ffb4
/layer2/layer2.1/Relu_1_output_0: 3db004cd
/layer2/layer2.2/conv1/Conv_output_0: 3cf7b6bc
/layer2/layer2.2/Relu_output_0: 3ccae432
/layer2/layer2.2/conv2/Conv_output_0: 3d0ec65e
/layer2/layer2.2/Add_output_0: 3d9ebfbf
/layer2/layer2.2/Relu_1_output_0: 3daa31f6
/layer2/layer2.3/conv1/Conv_output_0: 3ced8983
/layer2/layer2.3/Relu_output_0: 3cd34680
/layer2/layer2.3/conv2/Conv_output_0: 3d1650be
/layer2/layer2.3/Add_output_0: 3dbbaa51
/layer2/layer2.3/Relu_1_output_0: 3dcbe656
/layer2/layer2.4/conv1/Conv_output_0: 3cf41fd7
/layer2/layer2.4/Relu_output_0: 3ceb519d
/layer2/layer2.4/conv2/Conv_output_0: 3d361abc
/layer2/layer2.4/Add_output_0: 3dbf6487
/layer2/layer2.4/Relu_1_output_0: 3de08fba
/layer3/layer3.0/conv1/Conv_output_0: 3d10feef
/layer3/layer3.0/Relu_output_0: 3d1a6e94
/layer3/layer3.0/conv2/Conv_output_0: 3d4a0355
/layer3/layer3.0/shortcut/shortcut.0/Conv_output_0: 3d02ab3d
/layer3/layer3.0/Add_output_0: 3d896e52
/layer3/layer3.0/Relu_1_output_0: 3d9e2283
/layer3/layer3.1/conv1/Conv_output_0: 3d0e59de
/layer3/layer3.1/Relu_output_0: 3cf9c176
/layer3/layer3.1/conv2/Conv_output_0: 3d501b17
/layer3/layer3.1/Add_output_0: 3d8de9c1
/layer3/layer3.1/Relu_1_output_0: 3da120ac
/layer3/layer3.2/conv1/Conv_output_0: 3d0d9e9c
/layer3/layer3.2/Relu_output_0: 3cfaf0f0
/layer3/layer3.2/conv2/Conv_output_0: 3d39e0af
/layer3/layer3.2/Add_output_0: 3dcbd50f
/layer3/layer3.2/Relu_1_output_0: 3df29f37
/layer3/layer3.3/conv1/Conv_output_0: 3d2988f6
/layer3/layer3.3/Relu_output_0: 3d2b0a88
/layer3/layer3.3/conv2/Conv_output_0: 3d2178ea
/layer3/layer3.3/Add_output_0: 3e19ad7d
/layer3/layer3.3/Relu_1_output_0: 3e18405f
/layer3/layer3.4/conv1/Conv_output_0: 3ce8897d
/layer3/layer3.4/Relu_output_0: 3ce5ae1a
/layer3/layer3.4/conv2/Conv_output_0: 3b995eda
/layer3/layer3.4/Add_output_0: 3db5b2ce
/layer3/layer3.4/Relu_1_output_0: 3e17562c
/avgpool/GlobalAveragePool_output_0: 3d4ba572
/Reshape_output_0: 3d4ba572
fc.weight_output: 3bf22e80
/fc/Gemm_output: 3e54539e
fc.bias_output: 3a26a88f
ONNXTRT_Broadcast_output: 3a26a88f
logits: 3e6fd205
