TRT-101401-EntropyCalibration2
input: 3cb1ab7d
/conv1/Conv_output_0: 3d2634c2
/Relu_output_0: 3d2634c2
/layer1/layer1.0/conv1/Conv_output_0: 3d223edc
/layer1/layer1.0/Relu_output_0: 3d138a29
/layer1/layer1.0/conv2/Conv_output_0: 3d3074bf
/layer1/layer1.0/Add_output_0: 3d54dfbf
/layer1/layer1.0/Relu_1_output_0: 3d4b8616
/layer1/layer1.1/conv1/Conv_output_0: 3d1003dc
/layer1/layer1.1/Relu_output_0: 3cefd318
/layer1/layer1.1/conv2/Conv_output_0: 3d0b1ee3
/layer1/layer1.1/Add_output_0: 3d842e23
/layer1/layer1.1/Relu_1_output_0: 3d88d366
/layer1/layer1.2/conv1/Conv_output_0: 3d086ff8
/layer1/layer1.2/Relu_output_0: 3cbf3881
/layer1/layer1.2/conv2/Conv_output_0: 3d0f99cb
/layer1/layer1.2/Add_output_0: 3d95b480
/layer1/layer1.2/Relu_1_output_0: 3d95b480
/layer1/layer1.3/conv1/Conv_output_0: 3cf75438
/layer1/layer1.3/Relu_output_0: 3c8ae86d
/layer1/layer1.3/conv2/Conv_output_0: 3cf6bea0
/layer1/layer1.3/Add_output_0: 3dae61f3
/layer1/layer1.3/Relu_1_output_0: 3db195f4
/layer1/layer1.4/conv1/Conv_output_0: 3d139d2c
/layer1/layer1.4/Relu_output_0: 3cecb91a
/layer1/layer1.4/conv2/Conv_output_0: 3d5e4e0e
/layer1/layer1.4/Add_output_0: 3db0c9f7
/layer1/layer1.4/Relu_1_output_0: 3db0c9f7
/layer2/layer2.0/conv1/Conv_output_0: 3d0dabda
/layer2/layer2.0/Relu_output_0: 3d112614
/layer2/layer2.0/conv2/Conv_output_0: 3d381a4a
/layer2/layer2.0/shortcut/shortcut.0/Conv_output_0: 3d0d9634
/layer2/layer2.0/Add_output_0: 3d97b51b
/layer2/layer2.0/Relu_1_output_0: 3d9df0db
/layer2/layer2.1/conv1/Conv_output_0: 3d03f68c
/layer2/layer2.1/Relu_output_0: 3cdb1a79
/layer2/layer2.1/conv2/Conv_output_0: 3d015016
/layer2/layer2.1/Add_output_0: 3d9ea312
/layer2/layer2.1/Relu_1_output_0: 3da8d217
/layer2/layer2.2/conv1/Conv_output_0: 3cf7b6bc
/layer2/layer2.2/Relu_output_0: 3ccae432
/layer2/layer2.2/conv2/Conv_output_0: 3d0c4574
/layer2/layer2.2/Add_output_0: 3d9a3ca2
/layer2/layer2.2/Relu_1_output_0: 3da957cd
/layer2/layer2.3/conv1/Conv_output_0: 3ced8983
/layer2/layer2.3/Relu_output_0: 3cd10732
/layer2/layer2.3/conv2/Conv_output_0: 3d1ad571
/layer2/layer2.3/Add_output_0: 3dbdb899
/layer2/layer2.3/Relu_1_output_0: 3dcbdbf5
/layer2/layer2.4/conv1/Conv_output_0: 3cee1339
/layer2/layer2.4/Relu_output_0: 3ceb519d
/layer2/layer2.4/conv2/Conv_output_0: 3d3cd580
/layer2/layer2.4/Add_output_0: 3dbbcb1e
/layer2/layer2.4/Relu_1_output_0: 3de21365
/layer3/layer3.0/conv1/Conv_output_0: 3d12b03e
/layer3/layer3.0/Relu_output_0: 3d19eead
/layer3/layer3.0/conv2/Conv_output_0: 3d4a0355
/layer3/layer3.0/shortcut/shortcut.0/Conv_output_0: 3ce7d79c
/layer3/layer3.0/Add_output_0: 3d816f36
/layer3/layer3.0/Relu_1_output_0: 3d9d9c52
/layer3/layer3.1/conv1/Conv_output_0: 3d0e59de
/layer3/layer3.1/Relu_output_0: 3cf9c176
/layer3/layer3.1/conv2/Conv_output_0: 3d501b17
/layer3/layer3.1/Add_output_0: 3d8de64e
/layer3/layer3.1/Relu_1_output_0: 3da4892b
/layer3/layer3.2/conv1/Conv_output_0: 3d0d9e9c
/layer3/layer3.2/Relu_output_0: 3cfaf0f0
/layer3/layer3.2/conv2/Conv_output_0: 3d3ebd80
/layer3/layer3.2/Add_output_0: 3dcbd50f
/layer3/layer3.2/Relu_1_output_0: 3df29f37
/layer3/layer3.3/conv1/Conv_output_0: 3d29a59c
/layer3/layer3.3/Relu_output_0: 3d2cf24d
/layer3/layer3.3/conv2/Conv_output_0: 3d2bd4b2
/layer3/layer3.3/Add_output_0: 3e19ad7d
/layer3/layer3.3/Relu_1_output_0: 3e18405f
/layer3/layer3.4/conv1/Conv_output_0: 3ce8897d
/layer3/layer3.4/Relu_output_0: 3ce5ae1a
/layer3/layer3.4/conv2/Conv_output_0: 3b995eda
/layer3/layer3.4/Add_output_0: 3db5b2ce
/layer3/layer3.4/Relu_1_output_0: 3e17562c
/avgpool/GlobalAveragePool_output_0: 3d4ba572
/Reshape_output_0: 3d4ba572
fc.weight_output: 3bf22e80
/fc/Gemm_output: 3e54539e
fc.bias_output: 3a26a88f
ONNXTRT_Broadcast_output: 3a26a88f
logits: 3e6fd205
