TRT-101401-EntropyCalibration2
input: 3cb1ab7d
/conv1/Conv_output_0: 3d3ea7fe
/Relu_output_0: 3d3ea7fe
/layer1/layer1.0/conv1/Conv_output_0: 3d2574dc
/layer1/layer1.0/Relu_output_0: 3d1fa386
/layer1/layer1.0/conv2/Conv_output_0: 3d19b4fa
/layer1/layer1.0/Add_output_0: 3d4ccf06
/layer1/layer1.0/Relu_1_output_0: 3d714af6
/layer1/layer1.1/conv1/Conv_output_0: 3ce80d47
/layer1/layer1.1/Relu_output_0: 3ce5966c
/layer1/layer1.1/conv2/Conv_output_0: 3cc42031
/layer1/layer1.1/Add_output_0: 3d7fd486
/layer1/layer1.1/Relu_1_output_0: 3d833a10
/layer1/layer1.2/conv1/Conv_output_0: 3ccf718c
/layer1/layer1.2/Relu_output_0: 3ca595a2
/layer1/layer1.2/conv2/Conv_output_0: 3ccc9ff5
/layer1/layer1.2/Add_output_0: 3d82e3a0
/layer1/layer1.2/Relu_1_output_0: 3d909ffc
/layer1/layer1.3/conv1/Conv_output_0: 3cf3298d
/layer1/layer1.3/Relu_output_0: 3cb3c48c
/layer1/layer1.3/conv2/Conv_output_0: 3c9619f0
/layer1/layer1.3/Add_output_0: 3db75654
/layer1/layer1.3/Relu_1_output_0: 3d94a77b
/layer1/layer1.4/conv1/Conv_output_0: 3d09ef28
/layer1/layer1.4/Relu_output_0: 3cc0d2fd
/layer1/layer1.4/conv2/Conv_output_0: 3cc900b9
/layer1/layer1.4/Add_output_0: 3d938c95
/layer1/layer1.4/Relu_1_output_0: 3d94cff2
/layer2/layer2.0/conv1/Conv_output_0: 3cfeadc1
/layer2/layer2.0/Relu_output_0: 3d03fbcc
/layer2/layer2.0/conv2/Conv_output_0: 3d1519d6
/layer2/layer2.0/shortcut/shortcut.0/Conv_output_0: 3d12f8f0
/layer2/layer2.0/Add_output_0: 3d7c0c98
/layer2/layer2.0/Relu_1_output_0: 3d87a55a
/layer2/layer2.1/conv1/Conv_output_0: 3cab08b8
/layer2/layer2.1/Relu_output_0: 3c9ee2ba
/layer2/layer2.1/conv2/Conv_output_0: 3cc68a2d
/layer2/layer2.1/Add_output_0: 3d688f47
/layer2/layer2.1/Relu_1_output_0: 3d7bf3bb
/layer2/layer2.2/conv1/Conv_output_0: 3ca3e0ec
/layer2/layer2.2/Relu_output_0: 3c91e0f9
/layer2/layer2.2/conv2/Conv_output_0: 3c9c051a
/layer2/layer2.2/Add_output_0: 3d7146ac
/layer2/layer2.2/Relu_1_output_0: 3d8a2055
/layer2/layer2.3/conv1/Conv_output_0: 3ca343d4
/layer2/layer2.3/Relu_output_0: 3c7e6a20
/layer2/layer2.3/conv2/Conv_output_0: 3c7d416f
/layer2/layer2.3/Add_output_0: 3d6db6af
/layer2/layer2.3/Relu_1_output_0: 3d88df53
/layer2/layer2.4/conv1/Conv_output_0: 3c9662c1
/layer2/layer2.4/Relu_output_0: 3c9b7674
/layer2/layer2.4/conv2/Conv_output_0: 3cc248a4
/layer2/layer2.4/Add_output_0: 3d6cbaab
/layer2/layer2.4/Relu_1_output_0: 3d8004d0
/layer3/layer3.0/conv1/Conv_output_0: 3cd99414
/layer3/layer3.0/Relu_output_0: 3ceb2d76
/layer3/layer3.0/conv2/Conv_output_0: 3d1fcff0
/layer3/layer3.0/shortcut/shortcut.0/Conv_output_0: 3cccb3cb
/layer3/layer3.0/Add_output_0: 3d54be9c
/layer3/layer3.0/Relu_1_output_0: 3d54be9c
/layer3/layer3.1/conv1/Conv_output_0: 3ce05335
/layer3/layer3.1/Relu_output_0: 3ccda8ce
/layer3/layer3.1/conv2/Conv_output_0: 3cf8ab92
/layer3/layer3.1/Add_output_0: 3d638e27
/layer3/layer3.1/Relu_1_output_0: 3d7c398e
/layer3/layer3.2/conv1/Conv_output_0: 3cb144b5
/layer3/layer3.2/Relu_output_0: 3caf9090
/layer3/layer3.2/conv2/Conv_output_0: 3ca955b3
/layer3/layer3.2/Add_output_0: 3d79e2b5
/layer3/layer3.2/Relu_1_output_0: 3d9234e5
/layer3/layer3.3/conv1/Conv_output_0: 3c9e0208
/layer3/layer3.3/Relu_output_0: 3c9af496
/layer3/layer3.3/conv2/Conv_output_0: 3d02610a
/layer3/layer3.3/Add_output_0: 3d80704c
/layer3/layer3.3/Relu_1_output_0: 3da38df1
/layer3/layer3.4/conv1/Conv_output_0: 3cf1a1a4
/layer3/layer3.4/Relu_output_0: 3d077a6a
/layer3/layer3.4/conv2/Conv_output_0: 3d806513
/layer3/layer3.4/Add_output_0: 3dd6cd7d
/layer3/layer3.4/Relu_1_output_0: 3dfb72ca
/avgpool/GlobalAveragePool_output_0: 3d379077
/Reshape_output_0: 3d379077
fc.bias_output: 3b1aaa5e
/fc/Gemm_output: 3e66af7f
ONNXTRT_Broadcast_output: 3b1aaa5e
fc.weight_output: 3c056fee
logits: 3e48cb3d
