TRT-101401-EntropyCalibration2
input: 3cb1ab7d
/conv1/Conv_output_0: 3d351398
/Relu_output_0: 3d3e56f5
/layer1/layer1.0/conv1/Conv_output_0: 3d243574
/layer1/layer1.0/Relu_output_0: 3d1f9956
/layer1/layer1.0/conv2/Conv_output_0: 3d18d7d9
/layer1/layer1.0/Add_output_0: 3d4ccf06
/layer1/layer1.0/Relu_1_output_0: 3d714af6
/layer1/layer1.1/conv1/Conv_output_0: 3ce8d4c3
/layer1/layer1.1/Relu_output_0: 3ce5a0f1
/layer1/layer1.1/conv2/Conv_output_0: 3cc413da
/layer1/layer1.1/Add_output_0: 3d7fd486
/layer1/layer1.1/Relu_1_output_0: 3d833a10
/layer1/layer1.2/conv1/Conv_output_0: 3ccf718c
/layer1/layer1.2/Relu_output_0: 3ca595a2
/layer1/layer1.2/conv2/Conv_output_0: 3cce9827
/layer1/layer1.2/Add_output_0: 3d82e3a0
/layer1/layer1.2/Relu_1_output_0: 3d909ffc
/layer1/layer1.3/conv1/Conv_output_0: 3cf3298d
/layer1/layer1.3/Relu_output_0: 3cafffef
/layer1/layer1.3/conv2/Conv_output_0: 3c9619f0
/layer1/layer1.3/Add_output_0: 3db75654
/layer1/layer1.3/Relu_1_output_0: 3d94a77b
/layer1/layer1.4/conv1/Conv_output_0: 3d0868df
/layer1/layer1.4/Relu_output_0: 3cc0d2fd
/layer1/layer1.4/conv2/Conv_output_0: 3cc900b9
/layer1/layer1.4/Add_output_0: 3d938c95
/layer1/layer1.4/Relu_1_output_0: 3d94cff2
/layer2/layer2.0/conv1/Conv_output_0: 3cf258ca
/layer2/layer2.0/Relu_output_0: 3d021c15
/layer2/layer2.0/conv2/Conv_output_0: 3d156b2a
/layer2/layer2.0/shortcut/shortcut.0/Conv_output_0: 3d1004a7
/layer2/layer2.0/Add_output_0: 3d7b5523
/layer2/layer2.0/Relu_1_output_0: 3d880cf3
/layer2/layer2.1/conv1/Conv_output_0: 3cab08b8
/layer2/layer2.1/Relu_output_0: 3c96521b
/layer2/layer2.1/conv2/Conv_output_0: 3cc75e5b
/layer2/layer2.1/Add_output_0: 3d581e86
/layer2/layer2.1/Relu_1_output_0: 3d80e678
/layer2/layer2.2/conv1/Conv_output_0: 3ca7d645
/layer2/layer2.2/Relu_output_0: 3c9241f1
/layer2/layer2.2/conv2/Conv_output_0: 3c9cf63e
/layer2/layer2.2/Add_output_0: 3d712974
/layer2/layer2.2/Relu_1_output_0: 3d8a4d11
/layer2/layer2.3/conv1/Conv_output_0: 3ca343d4
/layer2/layer2.3/Relu_output_0: 3c7e6a20
/layer2/layer2.3/conv2/Conv_output_0: 3c85b670
/layer2/layer2.3/Add_output_0: 3d7fe387
/layer2/layer2.3/Relu_1_output_0: 3d7c9a12
/layer2/layer2.4/conv1/Conv_output_0: 3c960cfd
/layer2/layer2.4/Relu_output_0: 3c9a7d59
/layer2/layer2.4/conv2/Conv_output_0: 3cc248a4
/layer2/layer2.4/Add_output_0: 3d71bdc6
/layer2/layer2.4/Relu_1_output_0: 3d8191bc
/layer3/layer3.0/conv1/Conv_output_0: 3cd85976
/layer3/layer3.0/Relu_output_0: 3cea14b2
/layer3/layer3.0/conv2/Conv_output_0: 3d1bfe31
/layer3/layer3.0/shortcut/shortcut.0/Conv_output_0: 3cccb3cb
/layer3/layer3.0/Add_output_0: 3d5477e5
/layer3/layer3.0/Relu_1_output_0: 3d5477e5
/layer3/layer3.1/conv1/Conv_output_0: 3ce05335
/layer3/layer3.1/Relu_output_0: 3ccda8ce
/layer3/layer3.1/conv2/Conv_output_0: 3cf8888e
/layer3/layer3.1/Add_output_0: 3d638e27
/layer3/layer3.1/Relu_1_output_0: 3d7c398e
/layer3/layer3.2/conv1/Conv_output_0: 3cb10431
/layer3/layer3.2/Relu_output_0: 3cb3de5c
/layer3/layer3.2/conv2/Conv_output_0: 3c952229
/layer3/layer3.2/Add_output_0: 3d7a28b4
/layer3/layer3.2/Relu_1_output_0: 3d95d82b
/layer3/layer3.3/conv1/Conv_output_0: 3c9cd3e5
/layer3/layer3.3/Relu_output_0: 3c9abd8b
/layer3/layer3.3/conv2/Conv_output_0: 3d02610a
/layer3/layer3.3/Add_output_0: 3d824d5b
/layer3/layer3.3/Relu_1_output_0: 3da5b626
/layer3/layer3.4/conv1/Conv_output_0: 3cf1c6af
/layer3/layer3.4/Relu_output_0: 3d01c600
/layer3/layer3.4/conv2/Conv_output_0: 3d806513
/layer3/layer3.4/Add_output_0: 3dcf39eb
/layer3/layer3.4/Relu_1_output_0: 3e03f105
/avgpool/GlobalAveragePool_output_0: 3d379077
/fc/Gemm_output: 3e38fbe7
fc.bias_output: 3b1aaa5e
fc.weight_output: 3c056fee
ONNXTRT_Broadcast_output: 3b1aaa5e
/Reshape_output_0: 3d379077
logits: 3e3d63ab
