TRT-101401-EntropyCalibration2
input: 3cbaab4e
/conv1/Conv_output_0: 3d3eff27
/Relu_output_0: 3d3e9347
/layer1/layer1.0/conv1/Conv_output_0: 3d24bbf7
/layer1/layer1.0/Relu_output_0: 3d1f834c
/layer1/layer1.0/conv2/Conv_output_0: 3d184b1d
/layer1/layer1.0/Add_output_0: 3d4bb3cf
/layer1/layer1.0/Relu_1_output_0: 3d7160e7
/layer1/layer1.1/conv1/Conv_output_0: 3ce851ad
/layer1/layer1.1/Relu_output_0: 3ce4ebf4
/layer1/layer1.1/conv2/Conv_output_0: 3cc58cfb
/layer1/layer1.1/Add_output_0: 3d7c9751
/layer1/layer1.1/Relu_1_output_0: 3d86ae66
/layer1/layer1.2/conv1/Conv_output_0: 3ccec86f
/layer1/layer1.2/Relu_output_0: 3ca9cc49
/layer1/layer1.2/conv2/Conv_output_0: 3cd52fd0
/layer1/layer1.2/Add_output_0: 3d84bc06
/layer1/layer1.2/Relu_1_output_0: 3d9071c3
/layer1/layer1.3/conv1/Conv_output_0: 3cf43ffc
/layer1/layer1.3/Relu_output_0: 3cb45cff
/layer1/layer1.3/conv2/Conv_output_0: 3c95cc61
/layer1/layer1.3/Add_output_0: 3d8ee830
/layer1/layer1.3/Relu_1_output_0: 3d8ee830
/layer1/layer1.4/conv1/Conv_output_0: 3d0a151c
/layer1/layer1.4/Relu_output_0: 3cc29568
/layer1/layer1.4/conv2/Conv_output_0: 3cd04b98
/layer1/layer1.4/Add_output_0: 3d9379f6
/layer1/layer1.4/Relu_1_output_0: 3d90b3c1
/layer2/layer2.0/conv1/Conv_output_0: 3cff0b2d
/layer2/layer2.0/Relu_output_0: 3d01b5d8
/layer2/layer2.0/conv2/Conv_output_0: 3d106c1a
/layer2/layer2.0/shortcut/shortcut.0/Conv_output_0: 3d12f780
/layer2/layer2.0/Add_output_0: 3d774b05
/layer2/layer2.0/Relu_1_output_0: 3d8659b9
/layer2/layer2.1/conv1/Conv_output_0: 3cab1514
/layer2/layer2.1/Relu_output_0: 3c95b7dc
/layer2/layer2.1/conv2/Conv_output_0: 3cc75beb
/layer2/layer2.1/Add_output_0: 3d603a22
/layer2/layer2.1/Relu_1_output_0: 3d76b36c
/layer2/layer2.2/conv1/Conv_output_0: 3ca7b6b6
/layer2/layer2.2/Relu_output_0: 3c90f5fd
/layer2/layer2.2/conv2/Conv_output_0: 3c9c1113
/layer2/layer2.2/Add_output_0: 3d79ccde
/layer2/layer2.2/Relu_1_output_0: 3d896162
/layer2/layer2.3/conv1/Conv_output_0: 3ca2e418
/layer2/layer2.3/Relu_output_0: 3c72f20e
/layer2/layer2.3/conv2/Conv_output_0: 3c70c304
/layer2/layer2.3/Add_output_0: 3d74589a
/layer2/layer2.3/Relu_1_output_0: 3d8c5caf
/layer2/layer2.4/conv1/Conv_output_0: 3c967d3d
/layer2/layer2.4/Relu_output_0: 3c90eab7
/layer2/layer2.4/conv2/Conv_output_0: 3cbcca2e
/layer2/layer2.4/Add_output_0: 3d67a0a6
/layer2/layer2.4/Relu_1_output_0: 3d8a9b84
/layer3/layer3.0/conv1/Conv_output_0: 3cd8e45b
/layer3/layer3.0/Relu_output_0: 3ce907bc
/layer3/layer3.0/conv2/Conv_output_0: 3d2166af
/layer3/layer3.0/shortcut/shortcut.0/Conv_output_0: 3ccc6b8e
/layer3/layer3.0/Add_output_0: 3d54dad4
/layer3/layer3.0/Relu_1_output_0: 3d6ea25f
/layer3/layer3.1/conv1/Conv_output_0: 3cdfaf46
/layer3/layer3.1/Relu_output_0: 3cc5acea
/layer3/layer3.1/conv2/Conv_output_0: 3cef3098
/layer3/layer3.1/Add_output_0: 3d628242
/layer3/layer3.1/Relu_1_output_0: 3d81422e
/layer3/layer3.2/conv1/Conv_output_0: 3cb67e4d
/layer3/layer3.2/Relu_output_0: 3cad141d
/layer3/layer3.2/conv2/Conv_output_0: 3ca10345
/layer3/layer3.2/Add_output_0: 3d79965a
/layer3/layer3.2/Relu_1_output_0: 3d852875
/layer3/layer3.3/conv1/Conv_output_0: 3c9d40c2
/layer3/layer3.3/Relu_output_0: 3ca1387d
/layer3/layer3.3/conv2/Conv_output_0: 3d0682fc
/layer3/layer3.3/Add_output_0: 3d829bab
/layer3/layer3.3/Relu_1_output_0: 3da0540f
/layer3/layer3.4/conv1/Conv_output_0: 3cf211c9
/layer3/layer3.4/Relu_output_0: 3d08f447
/layer3/layer3.4/conv2/Conv_output_0: 3d810832
/layer3/layer3.4/Add_output_0: 3dd6d8f4
/layer3/layer3.4/Relu_1_output_0: 3df20372
/avgpool/GlobalAveragePool_output_0: 3d37bbb0
fc.weight_output: 3c056fee
/fc/Gemm_output: 3e429016
/Reshape_output_0: 3d37bbb0
fc.bias_output: 3b1aaa5e
logits: 3e34ed6f
ONNXTRT_Broadcast_output: 3b1aaa5e
