TRT-101401-EntropyCalibration2
input: 3cb1ab7d
/conv1/Conv_output_0: 3cf59e98
/Relu_output_0: 3d008bd2
/layer1/layer1.0/conv1/Conv_output_0: 3cdb9860
/layer1/layer1.0/Relu_output_0: 3cb1cba1
/layer1/layer1.0/conv2/Conv_output_0: 3cd1d3e0
/layer1/layer1.0/Add_output_0: 3d17903b
/layer1/layer1.0/Relu_1_output_0: 3d185cd9
/layer1/layer1.1/conv1/Conv_output_0: 3cc82207
/layer1/layer1.1/Relu_output_0: 3c701aea
/layer1/layer1.1/conv2/Conv_output_0: 3c9fbe88
/layer1/layer1.1/Add_output_0: 3d2aac62
/layer1/layer1.1/Relu_1_output_0: 3d31dd23
/layer1/layer1.2/conv1/Conv_output_0: 3c89f782
/layer1/layer1.2/Relu_output_0: 3c4f0822
/layer1/layer1.2/conv2/Conv_output_0: 3caff662
/layer1/layer1.2/Add_output_0: 3d408f25
/layer1/layer1.2/Relu_1_output_0: 3d495124
/layer1/layer1.3/conv1/Conv_output_0: 3ca60a9d
/layer1/layer1.3/Relu_output_0: 3c5d861c
/layer1/layer1.3/conv2/Conv_output_0: 3ca52cce
/layer1/layer1.3/Add_output_0: 3d51abfb
/layer1/layer1.3/Relu_1_output_0: 3d5b40a9
/layer1/layer1.4/conv1/Conv_output_0: 3cbb3cde
/layer1/layer1.4/Relu_output_0: 3c769703
/layer1/layer1.4/conv2/Conv_output_0: 3c6cfcf3
/layer1/layer1.4/Add_output_0: 3d3cd05f
/layer1/layer1.4/Relu_1_output_0: 3d3cd05f
/layer2/layer2.0/conv1/Conv_output_0: 3c9da478
/layer2/layer2.0/Relu_output_0: 3ca569d7
/layer2/layer2.0/conv2/Conv_output_0: 3cc93c07
/layer2/layer2.0/shortcut/shortcut.0/Conv_output_0: 3ca68671
/layer2/layer2.0/Add_output_0: 3d1b55c8
/layer2/layer2.0/Relu_1_output_0: 3d25c84c
/layer2/layer2.1/conv1/Conv_output_0: 3c8caa08
/layer2/layer2.1/Relu_output_0: 3c58dbf3
/layer2/layer2.1/conv2/Conv_output_0: 3c85c139
/layer2/layer2.1/Add_output_0: 3d198306
/layer2/layer2.1/Relu_1_output_0: 3d2c4c15
/layer2/layer2.2/conv1/Conv_output_0: 3c87d12c
/layer2/layer2.2/Relu_output_0: 3c5f1a95
/layer2/layer2.2/conv2/Conv_output_0: 3c83401f
/layer2/layer2.2/Add_output_0: 3d35aaa0
/layer2/layer2.2/Relu_1_output_0: 3d47018c
/layer2/layer2.3/conv1/Conv_output_0: 3c74096d
/layer2/layer2.3/Relu_output_0: 3c30788d
/layer2/layer2.3/conv2/Conv_output_0: 3c7898df
/layer2/layer2.3/Add_output_0: 3d3b48a1
/layer2/layer2.3/Relu_1_output_0: 3d48223a
/layer2/layer2.4/conv1/Conv_output_0: 3c5741c1
/layer2/layer2.4/Relu_output_0: 3c3c091c
/layer2/layer2.4/conv2/Conv_output_0: 3cb472a2
/layer2/layer2.4/Add_output_0: 3d41e35f
/layer2/layer2.4/Relu_1_output_0: 3d5fceeb
/layer3/layer3.0/conv1/Conv_output_0: 3cb95969
/layer3/layer3.0/Relu_output_0: 3ccd8d82
/layer3/layer3.0/conv2/Conv_output_0: 3d093888
/layer3/layer3.0/shortcut/shortcut.0/Conv_output_0: 3c8fd2cb
/layer3/layer3.0/Add_output_0: 3d28b725
/layer3/layer3.0/Relu_1_output_0: 3d4659cf
/layer3/layer3.1/conv1/Conv_output_0: 3cbb2f50
/layer3/layer3.1/Relu_output_0: 3cae4713
/layer3/layer3.1/conv2/Conv_output_0: 3cf8b267
/layer3/layer3.1/Add_output_0: 3d53ab32
/layer3/layer3.1/Relu_1_output_0: 3d6b14e5
/layer3/layer3.2/conv1/Conv_output_0: 3c934507
/layer3/layer3.2/Relu_output_0: 3c64c6ef
/layer3/layer3.2/conv2/Conv_output_0: 3cef420e
/layer3/layer3.2/Add_output_0: 3d5f76ee
/layer3/layer3.2/Relu_1_output_0: 3d6b1ef5
/layer3/layer3.3/conv1/Conv_output_0: 3c8050e2
/layer3/layer3.3/Relu_output_0: 3c6bde93
/layer3/layer3.3/conv2/Conv_output_0: 3d0b84c6
/layer3/layer3.3/Add_output_0: 3d8580e2
/layer3/layer3.3/Relu_1_output_0: 3da81c5c
/layer3/layer3.4/conv1/Conv_output_0: 3ca20bae
/layer3/layer3.4/Relu_output_0: 3caa374c
/layer3/layer3.4/conv2/Conv_output_0: 3d703fc5
/layer3/layer3.4/Add_output_0: 3dd39572
/layer3/layer3.4/Relu_1_output_0: 3df941a3
/avgpool/GlobalAveragePool_output_0: 3d72215a
/Reshape_output_0: 3d72215a
fc.weight_output: 3c05de61
/fc/Gemm_output: 3e48125d
fc.bias_output: 3af1df2c
ONNXTRT_Broadcast_output: 3af1df2c
logits: 3e468425
