TRT-101401-EntropyCalibration2
input: 3cb1ab7d
/conv1/Conv_output_0: 3cf55cda
/Relu_output_0: 3d008bd2
/layer1/layer1.0/conv1/Conv_output_0: 3ce5393a
/layer1/layer1.0/Relu_output_0: 3cb26760
/layer1/layer1.0/conv2/Conv_output_0: 3ccf1eb5
/layer1/layer1.0/Add_output_0: 3d14ddcb
/layer1/layer1.0/Relu_1_output_0: 3d1825ef
/layer1/layer1.1/conv1/Conv_output_0: 3cc81095
/layer1/layer1.1/Relu_output_0: 3c7b084a
/layer1/layer1.1/conv2/Conv_output_0: 3c9caa79
/layer1/layer1.1/Add_output_0: 3d2a4c09
/layer1/layer1.1/Relu_1_output_0: 3d2b73c6
/layer1/layer1.2/conv1/Conv_output_0: 3c89f782
/layer1/layer1.2/Relu_output_0: 3c4f0822
/layer1/layer1.2/conv2/Conv_output_0: 3caff662
/layer1/layer1.2/Add_output_0: 3d408f25
/layer1/layer1.2/Relu_1_output_0: 3d495124
/layer1/layer1.3/conv1/Conv_output_0: 3ca60a9d
/layer1/layer1.3/Relu_output_0: 3c5c182b
/layer1/layer1.3/conv2/Conv_output_0: 3cabc1ea
/layer1/layer1.3/Add_output_0: 3d51abfb
/layer1/layer1.3/Relu_1_output_0: 3d5b40a9
/layer1/layer1.4/conv1/Conv_output_0: 3cbd28c5
/layer1/layer1.4/Relu_output_0: 3c769703
/layer1/layer1.4/conv2/Conv_output_0: 3c6cfcf3
/layer1/layer1.4/Add_output_0: 3d3fecf2
/layer1/layer1.4/Relu_1_output_0: 3d3cc06a
/layer2/layer2.0/conv1/Conv_output_0: 3c9da478
/layer2/layer2.0/Relu_output_0: 3ca569d7
/layer2/layer2.0/conv2/Conv_output_0: 3cd6518a
/layer2/layer2.0/shortcut/shortcut.0/Conv_output_0: 3ca653a9
/layer2/layer2.0/Add_output_0: 3d206554
/layer2/layer2.0/Relu_1_output_0: 3d25d151
/layer2/layer2.1/conv1/Conv_output_0: 3c8e0e01
/layer2/layer2.1/Relu_output_0: 3c58dbf3
/layer2/layer2.1/conv2/Conv_output_0: 3c8aef20
/layer2/layer2.1/Add_output_0: 3d198306
/layer2/layer2.1/Relu_1_output_0: 3d2c4c15
/layer2/layer2.2/conv1/Conv_output_0: 3c87d097
/layer2/layer2.2/Relu_output_0: 3c5f1a95
/layer2/layer2.2/conv2/Conv_output_0: 3c83401f
/layer2/layer2.2/Add_output_0: 3d35aaa0
/layer2/layer2.2/Relu_1_output_0: 3d47018c
/layer2/layer2.3/conv1/Conv_output_0: 3c745dad
/layer2/layer2.3/Relu_output_0: 3c30788d
/layer2/layer2.3/conv2/Conv_output_0: 3c799c7f
/layer2/layer2.3/Add_output_0: 3d3c7c39
/layer2/layer2.3/Relu_1_output_0: 3d41665f
/layer2/layer2.4/conv1/Conv_output_0: 3c5741c1
/layer2/layer2.4/Relu_output_0: 3c3c27d3
/layer2/layer2.4/conv2/Conv_output_0: 3cb472a2
/layer2/layer2.4/Add_output_0: 3d3affab
/layer2/layer2.4/Relu_1_output_0: 3d66ceb8
/layer3/layer3.0/conv1/Conv_output_0: 3cb9dab1
/layer3/layer3.0/Relu_output_0: 3ccd0fc4
/layer3/layer3.0/conv2/Conv_output_0: 3d093888
/layer3/layer3.0/shortcut/shortcut.0/Conv_output_0: 3c8ee76a
/layer3/layer3.0/Add_output_0: 3d28ebf2
/layer3/layer3.0/Relu_1_output_0: 3d4083d6
/layer3/layer3.1/conv1/Conv_output_0: 3cbb2f50
/layer3/layer3.1/Relu_output_0: 3cae4713
/layer3/layer3.1/conv2/Conv_output_0: 3cf8b267
/layer3/layer3.1/Add_output_0: 3d53ab32
/layer3/layer3.1/Relu_1_output_0: 3d6b14e5
/layer3/layer3.2/conv1/Conv_output_0: 3c93753a
/layer3/layer3.2/Relu_output_0: 3c62e38b
/layer3/layer3.2/conv2/Conv_output_0: 3cef420e
/layer3/layer3.2/Add_output_0: 3d5f76ee
/layer3/layer3.2/Relu_1_output_0: 3d6b1ef5
/layer3/layer3.3/conv1/Conv_output_0: 3c8050e2
/layer3/layer3.3/Relu_output_0: 3c6c1c82
/layer3/layer3.3/conv2/Conv_output_0: 3d0b84c6
/layer3/layer3.3/Add_output_0: 3d8580e2
/layer3/layer3.3/Relu_1_output_0: 3da81c5c
/layer3/layer3.4/conv1/Conv_output_0: 3ca20bae
/layer3/layer3.4/Relu_output_0: 3caa374c
/layer3/layer3.4/conv2/Conv_output_0: 3d703fc5
/layer3/layer3.4/Add_output_0: 3dd39572
/layer3/layer3.4/Relu_1_output_0: 3df941a3
/avgpool/GlobalAveragePool_output_0: 3d72215a
/Reshape_output_0: 3d72215a
fc.weight_output: 3c05de61
/fc/Gemm_output: 3e48125d
fc.bias_output: 3af1df2c
ONNXTRT_Broadcast_output: 3af1df2c
logits: 3e468425
