TRT-101401-EntropyCalibration2
input: 3cbaab4e
/conv1/Conv_output_0: 3cdd3d83
/Relu_output_0: 3ccb2952
/layer1/layer1.0/conv1/Conv_output_0: 3cd51959
/layer1/layer1.0/Relu_output_0: 3cb8df4d
/layer1/layer1.0/conv2/Conv_output_0: 3cd265c6
/layer1/layer1.0/Add_output_0: 3d1ecd50
/layer1/layer1.0/Relu_1_output_0: 3d24ceaf
/layer1/layer1.1/conv1/Conv_output_0: 3ccfde20
/layer1/layer1.1/Relu_output_0: 3c81806e
/layer1/layer1.1/conv2/Conv_output_0: 3c9bef0b
/layer1/layer1.1/Add_output_0: 3d2e384e
/layer1/layer1.1/Relu_1_output_0: 3d2e384e
/layer1/layer1.2/conv1/Conv_output_0: 3c91fff3
/layer1/layer1.2/Relu_output_0: 3c4d4d7c
/layer1/layer1.2/conv2/Conv_output_0: 3cae96ed
/layer1/layer1.2/Add_output_0: 3d3ab3de
/layer1/layer1.2/Relu_1_output_0: 3d3ab3de
/layer1/layer1.3/conv1/Conv_output_0: 3c9951ea
/layer1/layer1.3/Relu_output_0: 3c572993
/layer1/layer1.3/conv2/Conv_output_0: 3cad75e4
/layer1/layer1.3/Add_output_0: 3d536a52
/layer1/layer1.3/Relu_1_output_0: 3d65dafa
/layer1/layer1.4/conv1/Conv_output_0: 3cb77853
/layer1/layer1.4/Relu_output_0: 3c5fef59
/layer1/layer1.4/conv2/Conv_output_0: 3c785c23
/layer1/layer1.4/Add_output_0: 3d3c0b1c
/layer1/layer1.4/Relu_1_output_0: 3d3bb618
/layer2/layer2.0/conv1/Conv_output_0: 3ca0d87f
/layer2/layer2.0/Relu_output_0: 3c9b463e
/layer2/layer2.0/conv2/Conv_output_0: 3cc172da
/layer2/layer2.0/shortcut/shortcut.0/Conv_output_0: 3ca5b4be
/layer2/layer2.0/Add_output_0: 3d1b3223
/layer2/layer2.0/Relu_1_output_0: 3d2d84cb
/layer2/layer2.1/conv1/Conv_output_0: 3c85de54
/layer2/layer2.1/Relu_output_0: 3c37a96f
/layer2/layer2.1/conv2/Conv_output_0: 3c81b7e7
/layer2/layer2.1/Add_output_0: 3d150d8f
/layer2/layer2.1/Relu_1_output_0: 3d2fc038
/layer2/layer2.2/conv1/Conv_output_0: 3c8ae43c
/layer2/layer2.2/Relu_output_0: 3c47ade6
/layer2/layer2.2/conv2/Conv_output_0: 3c87c0cb
/layer2/layer2.2/Add_output_0: 3d2fddb4
/layer2/layer2.2/Relu_1_output_0: 3d2fddb4
/layer2/layer2.3/conv1/Conv_output_0: 3c6c0f52
/layer2/layer2.3/Relu_output_0: 3c14e391
/layer2/layer2.3/conv2/Conv_output_0: 3c74b6a6
/layer2/layer2.3/Add_output_0: 3d367b99
/layer2/layer2.3/Relu_1_output_0: 3d42771b
/layer2/layer2.4/conv1/Conv_output_0: 3c63817c
/layer2/layer2.4/Relu_output_0: 3c21d2c2
/layer2/layer2.4/conv2/Conv_output_0: 3cc840e4
/layer2/layer2.4/Add_output_0: 3d3ade8d
/layer2/layer2.4/Relu_1_output_0: 3d4641ec
/layer3/layer3.0/conv1/Conv_output_0: 3ca1604d
/layer3/layer3.0/Relu_output_0: 3ca1604d
/layer3/layer3.0/conv2/Conv_output_0: 3d021d9a
/layer3/layer3.0/shortcut/shortcut.0/Conv_output_0: 3c7e6994
/layer3/layer3.0/Add_output_0: 3d218d25
/layer3/layer3.0/Relu_1_output_0: 3d20ca4c
/layer3/layer3.1/conv1/Conv_output_0: 3ca54d7a
/layer3/layer3.1/Relu_output_0: 3cb22936
/layer3/layer3.1/conv2/Conv_output_0: 3cd7e036
/layer3/layer3.1/Add_output_0: 3d55ff9e
/layer3/layer3.1/Relu_1_output_0: 3d55ff9e
/layer3/layer3.2/conv1/Conv_output_0: 3c92cb98
/layer3/layer3.2/Relu_output_0: 3c8c36a5
/layer3/layer3.2/conv2/Conv_output_0: 3cc88cd8
/layer3/layer3.2/Add_output_0: 3d661d2c
/layer3/layer3.2/Relu_1_output_0: 3d671df4
/layer3/layer3.3/conv1/Conv_output_0: 3c8598a7
/layer3/layer3.3/Relu_output_0: 3c6b1a93
/layer3/layer3.3/conv2/Conv_output_0: 3d028518
/layer3/layer3.3/Add_output_0: 3d75f35d
/layer3/layer3.3/Relu_1_output_0: 3da67b9a
/layer3/layer3.4/conv1/Conv_output_0: 3ca3c2ef
/layer3/layer3.4/Relu_output_0: 3c899318
/layer3/layer3.4/conv2/Conv_output_0: 3d828ef6
/layer3/layer3.4/Add_output_0: 3de4e073
/layer3/layer3.4/Relu_1_output_0: 3de4e073
/avgpool/GlobalAveragePool_output_0: 3d483fee
/Reshape_output_0: 3d483fee
fc.weight_output: 3c05de61
/fc/Gemm_output: 3e2abbea
fc.bias_output: 3af1df2c
ONNXTRT_Broadcast_output: 3af1df2c
logits: 3e2e5c52
