TRT-101401-EntropyCalibration2
input: 3cbaab4e
/conv1/Conv_output_0: 3d23c55b
/relu/Relu_output_0: 3d296e42
/maxpool1/MaxPool_output_0: 3d296e42
/fire2/conv1/Conv_output_0: 3d40843e
/fire2/relu1/Relu_output_0: 3cfd053b
/fire2/conv2/Conv_output_0: 3d032817
/fire2/conv3/Conv_output_0: 3cd6f3d1
/fire2/Concat_output_0: 3cdb6c2a
/fire2/relu2/Relu_output_0: 3ce2bece
/fire3/conv1/Conv_output_0: 3d0ca348
/fire3/relu1/Relu_output_0: 3d0ca348
/fire3/conv2/Conv_output_0: 3cdf8bae
/fire3/conv3/Conv_output_0: 3ceef4a6
/fire3/Concat_output_0: 3ceebc3e
/fire3/relu2/Relu_output_0: 3cd2ff30
/fire4/conv1/Conv_output_0: 3d0b252f
/fire4/relu1/Relu_output_0: 3d0b252f
/fire4/conv2/Conv_output_0: 3c5c098f
/fire4/conv3/Conv_output_0: 3cbf8074
/fire4/Concat_output_0: 3cba2e02
/fire4/relu2/Relu_output_0: 3c9f0a68
/maxpool2/MaxPool_output_0: 3c9f0a68
/fire5/conv1/Conv_output_0: 3d20155a
/fire5/relu1/Relu_output_0: 3d20155a
/fire5/conv2/Conv_output_0: 3c8fb8dc
/fire5/conv3/Conv_output_0: 3cc56990
/fire5/Concat_output_0: 3ca910e3
/fire5/relu2/Relu_output_0: 3ca6a1c3
/fire6/conv1/Conv_output_0: 3d1c6ca8
/fire6/relu1/Relu_output_0: 3d1c6ca8
/fire6/conv2/Conv_output_0: 3c42726a
/fire6/conv3/Conv_output_0: 3cba74d7
/fire6/Concat_output_0: 3cba74d7
/fire6/relu2/Relu_output_0: 3ca4683c
/fire7/conv1/Conv_output_0: 3d2129a1
/fire7/relu1/Relu_output_0: 3d34b4b8
/fire7/conv2/Conv_output_0: 3c20ddd5
/fire7/conv3/Conv_output_0: 3cbb274b
/fire7/Concat_output_0: 3cc136e8
/fire7/relu2/Relu_output_0: 3cacdf67
/fire8/conv1/Conv_output_0: 3d3a757e
/fire8/relu1/Relu_output_0: 3d2791f2
/fire8/conv2/Conv_output_0: 3c0424be
/fire8/conv3/Conv_output_0: 3ce3b49c
/fire8/Concat_output_0: 3c8b935e
/fire8/relu2/Relu_output_0: 3ce3b49c
/maxpool3/MaxPool_output_0: 3ce3b49c
/fire9/conv1/Conv_output_0: 3d04f7e0
/fire9/relu1/Relu_output_0: 3d182ede
/fire9/conv2/Conv_output_0: 3b03abf1
/fire9/conv3/Conv_output_0: 3cf32261
/fire9/Concat_output_0: 3cf32261
/fire9/relu2/Relu_output_0: 3d2bfcfe
/conv10/Conv_output_0: 3e7e8e36
/avg_pool/AveragePool_output_0: 3e7e8e36
logits: 3e1d08cb
