TRT-101401-EntropyCalibration2
input: 3cb1ab7d
/conv1/Conv_output_0: 3d1536e6
/relu/Relu_output_0: 3d299a9f
/maxpool1/MaxPool_output_0: 3d299a9f
/fire2/conv1/Conv_output_0: 3d4c6591
/fire2/relu1/Relu_output_0: 3cfc80a4
/fire2/conv2/Conv_output_0: 3ceed1f7
/fire2/conv3/Conv_output_0: 3ccaf02f
/fire2/Concat_output_0: 3ccd7589
/fire2/relu2/Relu_output_0: 3cda59d9
/fire3/conv1/Conv_output_0: 3d15b01b
/fire3/relu1/Relu_output_0: 3d15b01b
/fire3/conv2/Conv_output_0: 3ccf926c
/fire3/conv3/Conv_output_0: 3cf4faf3
/fire3/Concat_output_0: 3ced95ee
/fire3/relu2/Relu_output_0: 3cd4e39d
/fire4/conv1/Conv_output_0: 3d0d3f06
/fire4/relu1/Relu_output_0: 3d1134ff
/fire4/conv2/Conv_output_0: 3c64097d
/fire4/conv3/Conv_output_0: 3cc75b98
/fire4/Concat_output_0: 3cbe3e28
/fire4/relu2/Relu_output_0: 3cabceeb
/maxpool2/MaxPool_output_0: 3cabceeb
/fire5/conv1/Conv_output_0: 3d26150d
/fire5/relu1/Relu_output_0: 3d26150d
/fire5/conv2/Conv_output_0: 3c8a774e
/fire5/conv3/Conv_output_0: 3cc693fe
/fire5/Concat_output_0: 3cac88fa
/fire5/relu2/Relu_output_0: 3cb2d242
/fire6/conv1/Conv_output_0: 3d15ea74
/fire6/relu1/Relu_output_0: 3d243b3d
/fire6/conv2/Conv_output_0: 3c3c366b
/fire6/conv3/Conv_output_0: 3cbde376
/fire6/Concat_output_0: 3cb107b2
/fire6/relu2/Relu_output_0: 3ca8b350
/fire7/conv1/Conv_output_0: 3d240b91
/fire7/relu1/Relu_output_0: 3d38c261
/fire7/conv2/Conv_output_0: 3c791795
/fire7/conv3/Conv_output_0: 3ccf010e
/fire7/Concat_output_0: 3cd2467a
/fire7/relu2/Relu_output_0: 3cb2f178
/fire8/conv1/Conv_output_0: 3d252879
/fire8/relu1/Relu_output_0: 3d361094
/fire8/conv2/Conv_output_0: 3c0ab784
/fire8/conv3/Conv_output_0: 3c8823aa
/fire8/Concat_output_0: 3c8823aa
/fire8/relu2/Relu_output_0: 3cd9f4ab
/maxpool3/MaxPool_output_0: 3cd9f4ab
/fire9/conv1/Conv_output_0: 3d02ad23
/fire9/relu1/Relu_output_0: 3d47e207
/fire9/conv2/Conv_output_0: 3b1be46a
/fire9/conv3/Conv_output_0: 3d09b2b0
/fire9/Concat_output_0: 3d09b2b0
/fire9/relu2/Relu_output_0: 3d1f585b
/conv10/Conv_output_0: 3e93d471
/avg_pool/AveragePool_output_0: 3e93d471
logits: 3e5d1af2
