TRT-101401-EntropyCalibration2
input: 3cb1ab7d
/conv1/Conv_output_0: 3d2340e7
/relu/Relu_output_0: 3d2340e7
/maxpool1/MaxPool_output_0: 3d2340e7
/fire2/conv1/Conv_output_0: 3d4c6591
/fire2/relu1/Relu_output_0: 3cfcde7c
/fire2/conv2/Conv_output_0: 3ceed1f7
/fire2/conv3/Conv_output_0: 3ccb1960
/fire2/Concat_output_0: 3ccfa33c
/fire2/relu2/Relu_output_0: 3cd12a14
/fire3/conv1/Conv_output_0: 3d11bb18
/fire3/relu1/Relu_output_0: 3d11bb18
/fire3/conv2/Conv_output_0: 3ccf4d81
/fire3/conv3/Conv_output_0: 3cf4d1b4
/fire3/Concat_output_0: 3ce21bd4
/fire3/relu2/Relu_output_0: 3cd4e39d
/fire4/conv1/Conv_output_0: 3d0d62c4
/fire4/relu1/Relu_output_0: 3d132d98
/fire4/conv2/Conv_output_0: 3c6e740f
/fire4/conv3/Conv_output_0: 3cc75b98
/fire4/Concat_output_0: 3cbe3e28
/fire4/relu2/Relu_output_0: 3ca8d17c
/maxpool2/MaxPool_output_0: 3ca8d17c
/fire5/conv1/Conv_output_0: 3d26150d
/fire5/relu1/Relu_output_0: 3d26150d
/fire5/conv2/Conv_output_0: 3c8a774e
/fire5/conv3/Conv_output_0: 3cc693fe
/fire5/Concat_output_0: 3cac88fa
/fire5/relu2/Relu_output_0: 3cb2d242
/fire6/conv1/Conv_output_0: 3d1607e3
/fire6/relu1/Relu_output_0: 3d24cb1a
/fire6/conv2/Conv_output_0: 3c3c366b
/fire6/conv3/Conv_output_0: 3cbe0e0d
/fire6/Concat_output_0: 3cb3e2d7
/fire6/relu2/Relu_output_0: 3cb0e10d
/fire7/conv1/Conv_output_0: 3d240b91
/fire7/relu1/Relu_output_0: 3d38c261
/fire7/conv2/Conv_output_0: 3c791795
/fire7/conv3/Conv_output_0: 3ccaed2c
/fire7/Concat_output_0: 3cd27fc6
/fire7/relu2/Relu_output_0: 3cb30f31
/fire8/conv1/Conv_output_0: 3d29373c
/fire8/relu1/Relu_output_0: 3d364de5
/fire8/conv2/Conv_output_0: 3c0ab784
/fire8/conv3/Conv_output_0: 3c8823aa
/fire8/Concat_output_0: 3c8823aa
/fire8/relu2/Relu_output_0: 3cd9f4ab
/maxpool3/MaxPool_output_0: 3cd9f4ab
/fire9/conv1/Conv_output_0: 3d02ad23
/fire9/relu1/Relu_output_0: 3d47e207
/fire9/conv2/Conv_output_0: 3b19ab9a
/fire9/conv3/Conv_output_0: 3d09b2b0
/fire9/Concat_output_0: 3d09b2b0
/fire9/relu2/Relu_output_0: 3d28a910
/conv10/Conv_output_0: 3e952f33
/avg_pool/AveragePool_output_0: 3e952f33
logits: 3e5d1af2
