TRT-101401-EntropyCalibration2
input: 3cb1ab7d
/conv1/Conv_output_0: 3d2b2325
/Relu_output_0: 3d2aa6bd
/layer1/layer1.0/conv1/Conv_output_0: 3d1f6ef3
/layer1/layer1.0/Relu_output_0: 3d058c41
/layer1/layer1.0/conv2/Conv_output_0: 3d357852
/layer1/layer1.0/Add_output_0: 3d58e463
/layer1/layer1.0/Relu_1_output_0: 3d677cb8
/layer1/layer1.1/conv1/Conv_output_0: 3d1e52a0
/layer1/layer1.1/Relu_output_0: 3cf47c6c
/layer1/layer1.1/conv2/Conv_output_0: 3d1121cb
/layer1/layer1.1/Add_output_0: 3d92d753
/layer1/layer1.1/Relu_1_output_0: 3d96f371
/layer1/layer1.2/conv1/Conv_output_0: 3d0c76e1
/layer1/layer1.2/Relu_output_0: 3cccf991
/layer1/layer1.2/conv2/Conv_output_0: 3d0cf3ff
/layer1/layer1.2/Add_output_0: 3da51e1e
/layer1/layer1.2/Relu_1_output_0: 3da51e1e
/layer1/layer1.3/conv1/Conv_output_0: 3cfbe83c
/layer1/layer1.3/Relu_output_0: 3c99e720
/layer1/layer1.3/conv2/Conv_output_0: 3d010e37
/layer1/layer1.3/Add_output_0: 3dbca72b
/layer1/layer1.3/Relu_1_output_0: 3dc0fe0b
/layer1/layer1.4/conv1/Conv_output_0: 3d1638ff
/layer1/layer1.4/Relu_output_0: 3cf6bfd7
/layer1/layer1.4/conv2/Conv_output_0: 3d5d7c2d
/layer1/layer1.4/Add_output_0: 3dbc5847
/layer1/layer1.4/Relu_1_output_0: 3dbf7a8b
/layer2/layer2.0/conv1/Conv_output_0: 3d15890b
/layer2/layer2.0/Relu_output_0: 3d1ab4a5
/layer2/layer2.0/conv2/Conv_output_0: 3d3bc553
/layer2/layer2.0/shortcut/shortcut.0/Conv_output_0: 3d22517d
/layer2/layer2.0/Add_output_0: 3d9fb027
/layer2/layer2.0/Relu_1_output_0: 3da8eda7
/layer2/layer2.1/conv1/Conv_output_0: 3d03d5df
/layer2/layer2.1/Relu_output_0: 3cdbb974
/layer2/layer2.1/conv2/Conv_output_0: 3d049ccb
/layer2/layer2.1/Add_output_0: 3da24fb9
/layer2/layer2.1/Relu_1_output_0: 3db3a42d
/layer2/layer2.2/conv1/Conv_output_0: 3cf76d8c
/layer2/layer2.2/Relu_output_0: 3cd3538c
/layer2/layer2.2/conv2/Conv_output_0: 3d0cb9f1
/layer2/layer2.2/Add_output_0: 3daa4269
/layer2/layer2.2/Relu_1_output_0: 3daf80dd
/layer2/layer2.3/conv1/Conv_output_0: 3cf88818
/layer2/layer2.3/Relu_output_0: 3cb9cca5
/layer2/layer2.3/conv2/Conv_output_0: 3d1be0ec
/layer2/layer2.3/Add_output_0: 3dbcf20b
/layer2/layer2.3/Relu_1_output_0: 3dc4b4b8
/layer2/layer2.4/conv1/Conv_output_0: 3ce6548a
/layer2/layer2.4/Relu_output_0: 3cdb1395
/layer2/layer2.4/conv2/Conv_output_0: 3d25d0b6
/layer2/layer2.4/Add_output_0: 3dbf0bf7
/layer2/layer2.4/Relu_1_output_0: 3dd99757
/layer3/layer3.0/conv1/Conv_output_0: 3d1408ea
/layer3/layer3.0/Relu_output_0: 3d139368
/layer3/layer3.0/conv2/Conv_output_0: 3d4cf22f
/layer3/layer3.0/shortcut/shortcut.0/Conv_output_0: 3cfe5032
/layer3/layer3.0/Add_output_0: 3d8e2a79
/layer3/layer3.0/Relu_1_output_0: 3da56129
/layer3/layer3.1/conv1/Conv_output_0: 3d0adc21
/layer3/layer3.1/Relu_output_0: 3cf4abf8
/layer3/layer3.1/conv2/Conv_output_0: 3d5692d5
/layer3/layer3.1/Add_output_0: 3d941e59
/layer3/layer3.1/Relu_1_output_0: 3db257d6
/layer3/layer3.2/conv1/Conv_output_0: 3ccbcf3f
/layer3/layer3.2/Relu_output_0: 3d08d410
/layer3/layer3.2/conv2/Conv_output_0: 3d6344e2
/layer3/layer3.2/Add_output_0: 3dc1f43a
/layer3/layer3.2/Relu_1_output_0: 3df70a48
/layer3/layer3.3/conv1/Conv_output_0: 3c9dadb8
/layer3/layer3.3/Relu_output_0: 3d306ba2
/layer3/layer3.3/conv2/Conv_output_0: 3d5feeeb
/layer3/layer3.3/Add_output_0: 3df749e8
/layer3/layer3.3/Relu_1_output_0: 3e1a8678
/layer3/layer3.4/conv1/Conv_output_0: 3b9f1835
/layer3/layer3.4/Relu_output_0: 3cc8d9c7
/layer3/layer3.4/conv2/Conv_output_0: 3c81f707
/layer3/layer3.4/Add_output_0: 3e052bb3
/layer3/layer3.4/Relu_1_output_0: 3e1a1a4a
/avgpool/GlobalAveragePool_output_0: 3d5050c2
/Reshape_output_0: 3d5050c2
fc.weight_output: 3bd06263
/fc/Gemm_output: 3e4c3161
fc.bias_output: 3a22707e
ONNXTRT_Broadcast_output: 3a22707e
logits: 3e544a66
