TRT-101401-EntropyCalibration2
input: 3cb1ab7d
/conv1/Conv_output_0: 3d491e76
/Relu_output_0: 3d58c0f1
/layer1/layer1.0/conv1/Conv_output_0: 3d248d97
/layer1/layer1.0/Relu_output_0: 3d065c76
/layer1/layer1.0/conv2/Conv_output_0: 3d378d7e
/layer1/layer1.0/Add_output_0: 3d6f4699
/layer1/layer1.0/Relu_1_output_0: 3d6f4699
/layer1/layer1.1/conv1/Conv_output_0: 3d19916f
/layer1/layer1.1/Relu_output_0: 3ce27426
/layer1/layer1.1/conv2/Conv_output_0: 3d131eac
/layer1/layer1.1/Add_output_0: 3d904961
/layer1/layer1.1/Relu_1_output_0: 3d94c1bc
/layer1/layer1.2/conv1/Conv_output_0: 3cfc7d02
/layer1/layer1.2/Relu_output_0: 3cbe964f
/layer1/layer1.2/conv2/Conv_output_0: 3d028e0b
/layer1/layer1.2/Add_output_0: 3d979216
/layer1/layer1.2/Relu_1_output_0: 3da0af0d
/layer1/layer1.3/conv1/Conv_output_0: 3cefab12
/layer1/layer1.3/Relu_output_0: 3c8e9ba8
/layer1/layer1.3/conv2/Conv_output_0: 3ceef359
/layer1/layer1.3/Add_output_0: 3db29951
/layer1/layer1.3/Relu_1_output_0: 3db62132
/layer1/layer1.4/conv1/Conv_output_0: 3d0fe675
/layer1/layer1.4/Relu_output_0: 3cdfa5b5
/layer1/layer1.4/conv2/Conv_output_0: 3d633113
/layer1/layer1.4/Add_output_0: 3db64539
/layer1/layer1.4/Relu_1_output_0: 3db1cee8
/layer2/layer2.0/conv1/Conv_output_0: 3d080ea2
/layer2/layer2.0/Relu_output_0: 3d07eab5
/layer2/layer2.0/conv2/Conv_output_0: 3d48ac1a
/layer2/layer2.0/shortcut/shortcut.0/Conv_output_0: 3d12842c
/layer2/layer2.0/Add_output_0: 3da20b63
/layer2/layer2.0/Relu_1_output_0: 3da38010
/layer2/layer2.1/conv1/Conv_output_0: 3cf9def0
/layer2/layer2.1/Relu_output_0: 3cd1eb68
/layer2/layer2.1/conv2/Conv_output_0: 3d0066e8
/layer2/layer2.1/Add_output_0: 3da23517
/layer2/layer2.1/Relu_1_output_0: 3dafd480
/layer2/layer2.2/conv1/Conv_output_0: 3cec7068
/layer2/layer2.2/Relu_output_0: 3cce241a
/layer2/layer2.2/conv2/Conv_output_0: 3d0e628b
/layer2/layer2.2/Add_output_0: 3da66422
/layer2/layer2.2/Relu_1_output_0: 3daf42aa
/layer2/layer2.3/conv1/Conv_output_0: 3ce40386
/layer2/layer2.3/Relu_output_0: 3cc02f9b
/layer2/layer2.3/conv2/Conv_output_0: 3d18c469
/layer2/layer2.3/Add_output_0: 3db40be1
/layer2/layer2.3/Relu_1_output_0: 3dc217e7
/layer2/layer2.4/conv1/Conv_output_0: 3cda4761
/layer2/layer2.4/Relu_output_0: 3ccc7db6
/layer2/layer2.4/conv2/Conv_output_0: 3d247d61
/layer2/layer2.4/Add_output_0: 3db39a0b
/layer2/layer2.4/Relu_1_output_0: 3dd8057a
/layer3/layer3.0/conv1/Conv_output_0: 3d0de82a
/layer3/layer3.0/Relu_output_0: 3d0e0fe4
/layer3/layer3.0/conv2/Conv_output_0: 3d52b4d8
/layer3/layer3.0/shortcut/shortcut.0/Conv_output_0: 3d012c6e
/layer3/layer3.0/Add_output_0: 3d8cd419
/layer3/layer3.0/Relu_1_output_0: 3da81089
/layer3/layer3.1/conv1/Conv_output_0: 3d08aba7
/layer3/layer3.1/Relu_output_0: 3d00fea3
/layer3/layer3.1/conv2/Conv_output_0: 3d5e0507
/layer3/layer3.1/Add_output_0: 3d957da3
/layer3/layer3.1/Relu_1_output_0: 3da902b5
/layer3/layer3.2/conv1/Conv_output_0: 3d0a1dd5
/layer3/layer3.2/Relu_output_0: 3d0b2de5
/layer3/layer3.2/conv2/Conv_output_0: 3d548179
/layer3/layer3.2/Add_output_0: 3db6d0f0
/layer3/layer3.2/Relu_1_output_0: 3dfd899c
/layer3/layer3.3/conv1/Conv_output_0: 3d1ce53f
/layer3/layer3.3/Relu_output_0: 3d36ec9b
/layer3/layer3.3/conv2/Conv_output_0: 3d1ba211
/layer3/layer3.3/Add_output_0: 3e0287d2
/layer3/layer3.3/Relu_1_output_0: 3e218035
/layer3/layer3.4/conv1/Conv_output_0: 3ccde9fe
/layer3/layer3.4/Relu_output_0: 3ccde9fe
/layer3/layer3.4/conv2/Conv_output_0: 3c6f9149
/layer3/layer3.4/Add_output_0: 3dfa010a
/layer3/layer3.4/Relu_1_output_0: 3e243262
/avgpool/GlobalAveragePool_output_0: 3d48bd59
/Reshape_output_0: 3d48bd59
fc.weight_output: 3c0baaf9
/fc/Gemm_output: 3e79f836
fc.bias_output: 3a23e3df
ONNXTRT_Broadcast_output: 3a23e3df
logits: 3e9ea099
