TRT-101401-EntropyCalibration2
input: 3cbaab4e
/conv1/Conv_output_0: 3d2ba95f
/Relu_output_0: 3d2ba95f
/layer1/layer1.0/conv1/Conv_output_0: 3d1fcd8f
/layer1/layer1.0/Relu_output_0: 3d04c757
/layer1/layer1.0/conv2/Conv_output_0: 3d3b6011
/layer1/layer1.0/Add_output_0: 3d649d13
/layer1/layer1.0/Relu_1_output_0: 3d5e5c4f
/layer1/layer1.1/conv1/Conv_output_0: 3d277bd6
/layer1/layer1.1/Relu_output_0: 3ced35c4
/layer1/layer1.1/conv2/Conv_output_0: 3d0a5fdd
/layer1/layer1.1/Add_output_0: 3d92aa14
/layer1/layer1.1/Relu_1_output_0: 3d92aa14
/layer1/layer1.2/conv1/Conv_output_0: 3d072d68
/layer1/layer1.2/Relu_output_0: 3ccaeb5d
/layer1/layer1.2/conv2/Conv_output_0: 3d0d3819
/layer1/layer1.2/Add_output_0: 3d9df027
/layer1/layer1.2/Relu_1_output_0: 3d9df027
/layer1/layer1.3/conv1/Conv_output_0: 3cf89358
/layer1/layer1.3/Relu_output_0: 3c8be72a
/layer1/layer1.3/conv2/Conv_output_0: 3cf9e327
/layer1/layer1.3/Add_output_0: 3db8fabf
/layer1/layer1.3/Relu_1_output_0: 3dc0b0b7
/layer1/layer1.4/conv1/Conv_output_0: 3d18113c
/layer1/layer1.4/Relu_output_0: 3cfef70b
/layer1/layer1.4/conv2/Conv_output_0: 3d57194a
/layer1/layer1.4/Add_output_0: 3dc48516
/layer1/layer1.4/Relu_1_output_0: 3dc48516
/layer2/layer2.0/conv1/Conv_output_0: 3d1612c6
/layer2/layer2.0/Relu_output_0: 3d25bd69
/layer2/layer2.0/conv2/Conv_output_0: 3d325be8
/layer2/layer2.0/shortcut/shortcut.0/Conv_output_0: 3d2851a6
/layer2/layer2.0/Add_output_0: 3d9be532
/layer2/layer2.0/Relu_1_output_0: 3da1c5ff
/layer2/layer2.1/conv1/Conv_output_0: 3d07eda3
/layer2/layer2.1/Relu_output_0: 3cd938d4
/layer2/layer2.1/conv2/Conv_output_0: 3d072e6c
/layer2/layer2.1/Add_output_0: 3dabffc6
/layer2/layer2.1/Relu_1_output_0: 3dabffc6
/layer2/layer2.2/conv1/Conv_output_0: 3cfb940c
/layer2/layer2.2/Relu_output_0: 3cbed135
/layer2/layer2.2/conv2/Conv_output_0: 3d0cd429
/layer2/layer2.2/Add_output_0: 3da9ba11
/layer2/layer2.2/Relu_1_output_0: 3dad5363
/layer2/layer2.3/conv1/Conv_output_0: 3cebaa1f
/layer2/layer2.3/Relu_output_0: 3cbe9b2f
/layer2/layer2.3/conv2/Conv_output_0: 3d1d0a10
/layer2/layer2.3/Add_output_0: 3db02c06
/layer2/layer2.3/Relu_1_output_0: 3dbc5da2
/layer2/layer2.4/conv1/Conv_output_0: 3cdabf67
/layer2/layer2.4/Relu_output_0: 3cb909d7
/layer2/layer2.4/conv2/Conv_output_0: 3d1333b9
/layer2/layer2.4/Add_output_0: 3db37da5
/layer2/layer2.4/Relu_1_output_0: 3dd630d9
/layer3/layer3.0/conv1/Conv_output_0: 3d0a2183
/layer3/layer3.0/Relu_output_0: 3d1efba4
/layer3/layer3.0/conv2/Conv_output_0: 3d4c948d
/layer3/layer3.0/shortcut/shortcut.0/Conv_output_0: 3cd7eb5f
/layer3/layer3.0/Add_output_0: 3d5f58ef
/layer3/layer3.0/Relu_1_output_0: 3d8ce073
/layer3/layer3.1/conv1/Conv_output_0: 3ceee73d
/layer3/layer3.1/Relu_output_0: 3cd70657
/layer3/layer3.1/conv2/Conv_output_0: 3d423915
/layer3/layer3.1/Add_output_0: 3d8a750f
/layer3/layer3.1/Relu_1_output_0: 3d95784c
/layer3/layer3.2/conv1/Conv_output_0: 3cd8167c
/layer3/layer3.2/Relu_output_0: 3d046efc
/layer3/layer3.2/conv2/Conv_output_0: 3dbe0c69
/layer3/layer3.2/Add_output_0: 3db782ca
/layer3/layer3.2/Relu_1_output_0: 3dddb3ec
/layer3/layer3.3/conv1/Conv_output_0: 3d0541e1
/layer3/layer3.3/Relu_output_0: 3d271465
/layer3/layer3.3/conv2/Conv_output_0: 3d53e49a
/layer3/layer3.3/Add_output_0: 3df6f707
/layer3/layer3.3/Relu_1_output_0: 3e0bcb2c
/layer3/layer3.4/conv1/Conv_output_0: 3b89054e
/layer3/layer3.4/Relu_output_0: 3ccd25dd
/layer3/layer3.4/conv2/Conv_output_0: 3c8211e5
/layer3/layer3.4/Add_output_0: 3e13e445
/layer3/layer3.4/Relu_1_output_0: 3e1f7954
/avgpool/GlobalAveragePool_output_0: 3d1a822d
/Reshape_output_0: 3d1a822d
fc.weight_output: 3bd06263
/fc/Gemm_output: 3e1ec2a2
fc.bias_output: 3a22707e
ONNXTRT_Broadcast_output: 3a22707e
logits: 3e22297e
