TRT-101401-EntropyCalibration2
input: 3cb1ab7d
getitem: 3d49099e
relu: 3d58a579
getitem_3: 3d20836f
relu_1: 3d06dc9c
getitem_6: 3d37f6ca
add: 3d6e8cbe
relu_2: 3d6e8cbe
getitem_9: 3d18ed85
relu_3: 3ce277d7
getitem_12: 3d131eac
add_1: 3d904c0d
relu_4: 3d904c0d
getitem_15: 3cfc7d02
relu_5: 3cbf9bfb
getitem_18: 3d023b94
add_2: 3d979216
relu_6: 3da0af0d
getitem_21: 3cef6563
relu_7: 3c8ed9f8
getitem_24: 3ceef359
add_3: 3db29951
relu_8: 3db62132
getitem_27: 3d0fe675
relu_9: 3cdfa5b5
getitem_30: 3d633113
add_4: 3db64539
relu_10: 3db1cee8
getitem_33: 3d3e66b4
relu_11: 3d2fe1e1
getitem_36: 3d706119
getitem_39: 3d12842c
add_5: 3d8d5b0a
relu_12: 3d97390d
getitem_42: 3d204595
relu_13: 3ce0d86e
getitem_45: 3d032cdc
add_6: 3d935b1b
relu_14: 3d9b381f
getitem_48: 3d05d0af
relu_15: 3cbd6e1d
getitem_51: 3d084674
add_7: 3d998ca0
relu_16: 3d9f6d0f
getitem_54: 3cd9fbc9
relu_17: 3caeff8c
getitem_57: 3d0507c8
add_8: 3da43232
relu_18: 3daaeb93
getitem_60: 3ccd821e
relu_19: 3ca3ab8c
getitem_63: 3d02909f
add_9: 3db08b90
relu_20: 3dbf35d4
getitem_66: 3d1aeb2a
relu_21: 3d1ae273
getitem_69: 3d2e8aa6
getitem_72: 3cccaa9b
add_10: 3d5760d9
relu_22: 3d73ffa6
getitem_75: 3cd6f776
relu_23: 3c9a6180
getitem_78: 3d09bc07
add_11: 3d486506
relu_24: 3d5fe02c
getitem_81: 3ce43fe4
relu_25: 3c9aea17
getitem_84: 3cc8d810
add_12: 3d4ea855
relu_26: 3da0fda8
getitem_87: 3cb5aa7b
relu_27: 3cc1722f
getitem_90: 3caf3180
add_13: 3dbe2bfc
relu_28: 3dc52203
getitem_93: 3c33eb71
relu_29: 3c5b04cc
getitem_96: 3b6cebbf
add_14: 3d83c8f7
relu_30: 3dc7fae8
mean: 3d418226
view: 3d418226
fc.weight_output: 3c0baaf9
node_linear_output: 3e1fc1d4
fc.bias_output: 3a23e3df
ONNXTRT_Broadcast_output: 3a23e3df
logits: 3e1cf57f
