TRT-101401-EntropyCalibration2
input: 3cb1ab7d
/conv1/Conv_output_0: 3d49099e
/Relu_output_0: 3d58a579
/layer1/layer1.0/conv1/Conv_output_0: 3d20836f
/layer1/layer1.0/Relu_output_0: 3d06dc9c
/layer1/layer1.0/conv2/Conv_output_0: 3d37f6ca
/layer1/layer1.0/Add_output_0: 3d6e8cbe
/layer1/layer1.0/Relu_1_output_0: 3d6e8cbe
/layer1/layer1.1/conv1/Conv_output_0: 3d18ed85
/layer1/layer1.1/Relu_output_0: 3ce277d7
/layer1/layer1.1/conv2/Conv_output_0: 3d131eac
/layer1/layer1.1/Add_output_0: 3d904c0d
/layer1/layer1.1/Relu_1_output_0: 3d904c0d
/layer1/layer1.2/conv1/Conv_output_0: 3cfc7d02
/layer1/layer1.2/Relu_output_0: 3cbf9bfb
/layer1/layer1.2/conv2/Conv_output_0: 3d023b94
/layer1/layer1.2/Add_output_0: 3d979216
/layer1/layer1.2/Relu_1_output_0: 3da0af0d
/layer1/layer1.3/conv1/Conv_output_0: 3cef6563
/layer1/layer1.3/Relu_output_0: 3c8ed9f8
/layer1/layer1.3/conv2/Conv_output_0: 3ceef359
/layer1/layer1.3/Add_output_0: 3db29951
/layer1/layer1.3/Relu_1_output_0: 3db62132
/layer1/layer1.4/conv1/Conv_output_0: 3d0fe675
/layer1/layer1.4/Relu_output_0: 3cdfa5b5
/layer1/layer1.4/conv2/Conv_output_0: 3d633113
/layer1/layer1.4/Add_output_0: 3db64539
/layer1/layer1.4/Relu_1_output_0: 3db1cee8
/layer2/layer2.0/conv1/Conv_output_0: 3d080ea2
/layer2/layer2.0/Relu_output_0: 3d07eab5
/layer2/layer2.0/conv2/Conv_output_0: 3d41e084
/layer2/layer2.0/shortcut/shortcut.0/Conv_output_0: 3d12842c
/layer2/layer2.0/Add_output_0: 3da20b63
/layer2/layer2.0/Relu_1_output_0: 3da38010
/layer2/layer2.1/conv1/Conv_output_0: 3cf9def0
/layer2/layer2.1/Relu_output_0: 3cd1eb68
/layer2/layer2.1/conv2/Conv_output_0: 3d040079
/layer2/layer2.1/Add_output_0: 3dabea2a
/layer2/layer2.1/Relu_1_output_0: 3db13c8f
/layer2/layer2.2/conv1/Conv_output_0: 3cec7068
/layer2/layer2.2/Relu_output_0: 3cd22385
/layer2/layer2.2/conv2/Conv_output_0: 3d0e1f07
/layer2/layer2.2/Add_output_0: 3da63f11
/layer2/layer2.2/Relu_1_output_0: 3db2c0b7
/layer2/layer2.3/conv1/Conv_output_0: 3ce40386
/layer2/layer2.3/Relu_output_0: 3cc02f9b
/layer2/layer2.3/conv2/Conv_output_0: 3d19bf03
/layer2/layer2.3/Add_output_0: 3db41a76
/layer2/layer2.3/Relu_1_output_0: 3dc3e4ab
/layer2/layer2.4/conv1/Conv_output_0: 3cd60e41
/layer2/layer2.4/Relu_output_0: 3ccc609e
/layer2/layer2.4/conv2/Conv_output_0: 3d25015e
/layer2/layer2.4/Add_output_0: 3dab70db
/layer2/layer2.4/Relu_1_output_0: 3dd833cb
/layer3/layer3.0/conv1/Conv_output_0: 3d08c433
/layer3/layer3.0/Relu_output_0: 3d0e1ce0
/layer3/layer3.0/conv2/Conv_output_0: 3d52b4d8
/layer3/layer3.0/shortcut/shortcut.0/Conv_output_0: 3cfd83a0
/layer3/layer3.0/Add_output_0: 3d8cd3a6
/layer3/layer3.0/Relu_1_output_0: 3dac2b11
/layer3/layer3.1/conv1/Conv_output_0: 3d08aba7
/layer3/layer3.1/Relu_output_0: 3d00fea3
/layer3/layer3.1/conv2/Conv_output_0: 3d5e0507
/layer3/layer3.1/Add_output_0: 3d95a504
/layer3/layer3.1/Relu_1_output_0: 3da92760
/layer3/layer3.2/conv1/Conv_output_0: 3d0a1dd5
/layer3/layer3.2/Relu_output_0: 3d0ca49d
/layer3/layer3.2/conv2/Conv_output_0: 3d5ad744
/layer3/layer3.2/Add_output_0: 3db6d0f0
/layer3/layer3.2/Relu_1_output_0: 3dfd899c
/layer3/layer3.3/conv1/Conv_output_0: 3d24b0cd
/layer3/layer3.3/Relu_output_0: 3d34957e
/layer3/layer3.3/conv2/Conv_output_0: 3d350eab
/layer3/layer3.3/Add_output_0: 3e0287d2
/layer3/layer3.3/Relu_1_output_0: 3e218035
/layer3/layer3.4/conv1/Conv_output_0: 3ccde9fe
/layer3/layer3.4/Relu_output_0: 3ccde9fe
/layer3/layer3.4/conv2/Conv_output_0: 3c6f9149
/layer3/layer3.4/Add_output_0: 3dfa010a
/layer3/layer3.4/Relu_1_output_0: 3e243262
/avgpool/GlobalAveragePool_output_0: 3d48bd59
/Reshape_output_0: 3d48bd59
fc.weight_output: 3c0baaf9
/fc/Gemm_output: 3e7a14b9
fc.bias_output: 3a23e3df
ONNXTRT_Broadcast_output: 3a23e3df
logits: 3e82f8f7
