TRT-101401-EntropyCalibration2
input: 3cb1ab7d
getitem: 3d491e76
relu: 3d58c0f1
getitem_3: 3d248d97
relu_1: 3d065c76
getitem_6: 3d378d7e
add: 3d6f4699
relu_2: 3d6f4699
getitem_9: 3d19916f
relu_3: 3ce27426
getitem_12: 3d131eac
add_1: 3d904961
relu_4: 3d94c1bc
getitem_15: 3cfc7d02
relu_5: 3cbe964f
getitem_18: 3d028e0b
add_2: 3d979216
relu_6: 3da0af0d
getitem_21: 3cefab12
relu_7: 3c8e9ba8
getitem_24: 3ceef359
add_3: 3db29951
relu_8: 3db62132
getitem_27: 3d0fe675
relu_9: 3cdfa5b5
getitem_30: 3d633113
add_4: 3db64539
relu_10: 3db1cee8
getitem_33: 3d3e66b4
relu_11: 3d2fac07
getitem_36: 3d68dc52
getitem_39: 3d12842c
add_5: 3d8d5b0a
relu_12: 3d97390d
getitem_42: 3d2043d9
relu_13: 3ce0d86e
getitem_45: 3d0359b3
add_6: 3d935b1b
relu_14: 3d9b381f
getitem_48: 3d05ca5a
relu_15: 3cbd8baa
getitem_51: 3d086f86
add_7: 3d998ca0
relu_16: 3d9f6d0f
getitem_54: 3cd9fbc9
relu_17: 3caeff8c
getitem_57: 3d044feb
add_8: 3da43232
relu_18: 3daaeb93
getitem_60: 3ccd821e
relu_19: 3ca3b5da
getitem_63: 3d02909f
add_9: 3db0ec72
relu_20: 3dc5ab9c
getitem_66: 3d164290
relu_21: 3d1ae273
getitem_69: 3d2e8aa6
getitem_72: 3cccaa9b
add_10: 3d5760d9
relu_22: 3d73ffa6
getitem_75: 3cd6b26b
relu_23: 3c9a6180
getitem_78: 3d05c26e
add_11: 3d486506
relu_24: 3d5fe02c
getitem_81: 3ce43901
relu_25: 3c9aea17
getitem_84: 3cc8d810
add_12: 3d5c1f3b
relu_26: 3da129e8
getitem_87: 3cbc8acf
relu_27: 3cc17abf
getitem_90: 3caefdc3
add_13: 3dbdd92d
relu_28: 3dc5ccd4
getitem_93: 3c33ebe4
relu_29: 3c55bfe1
getitem_96: 3b56dd79
add_14: 3d827f8b
relu_30: 3dca415a
mean: 3d3cd424
view: 3d3cd424
fc.weight_output: 3c0baaf9
node_linear_output: 3e1c6d8b
fc.bias_output: 3a23e3df
ONNXTRT_Broadcast_output: 3a23e3df
logits: 3e1cdacb
