TRT-101401-EntropyCalibration2
input: 3cbaab4e
getitem: 3d497632
relu: 3d592956
getitem_3: 3d1c9185
relu_1: 3d02690e
getitem_6: 3d36cf29
add: 3d6bfd3b
relu_2: 3d7733b9
getitem_9: 3d22f82d
relu_3: 3cd60c13
getitem_12: 3d08d10c
add_1: 3d91ec42
relu_4: 3d91ec42
getitem_15: 3cfcea76
relu_5: 3cbe3c09
getitem_18: 3d0d3b05
add_2: 3d97bd09
relu_6: 3d97bd09
getitem_21: 3ce14679
relu_7: 3c8a02de
getitem_24: 3ce31f19
add_3: 3db345e9
relu_8: 3db345e9
getitem_27: 3d0a065a
relu_9: 3ce61ee8
getitem_30: 3d5e062f
add_4: 3dae0e36
relu_10: 3dbb537e
getitem_33: 3d394613
relu_11: 3d341833
getitem_36: 3d6aaee4
getitem_39: 3d11ea68
add_5: 3d8e014b
relu_12: 3d8e014b
getitem_42: 3d32ac9f
relu_13: 3cdb114f
getitem_45: 3d061cef
add_6: 3d93ac29
relu_14: 3d99a806
getitem_48: 3d0303de
relu_15: 3cc9312d
getitem_51: 3d117a7d
add_7: 3d9f075f
relu_16: 3da24b8b
getitem_54: 3cddd3e4
relu_17: 3c8d3fbe
getitem_57: 3d049151
add_8: 3da86f56
relu_18: 3da98137
getitem_60: 3cce3685
relu_19: 3c831251
getitem_63: 3cdb8547
add_9: 3dae1457
relu_20: 3dc0b7fa
getitem_66: 3d1ef0d6
relu_21: 3d12744b
getitem_69: 3d2e02a2
getitem_72: 3ccb2876
add_10: 3d5c70f2
relu_22: 3d5c70f2
getitem_75: 3cd11687
relu_23: 3c995966
getitem_78: 3cf2cf31
add_11: 3d4b1819
relu_24: 3d3f0902
getitem_81: 3ce97370
relu_25: 3c8fa363
getitem_84: 3ce659e1
add_12: 3d65a469
relu_26: 3d8fbe8d
getitem_87: 3c96ea67
relu_27: 3caf2678
getitem_90: 3cac0688
add_13: 3d8b747b
relu_28: 3db1b542
getitem_93: 3c152dc4
relu_29: 3c1035f9
getitem_96: 3b488903
add_14: 3d8607ae
relu_30: 3db2087d
mean: 3d53d446
view: 3d53d446
fc.weight_output: 3c0baaf9
node_linear_output: 3e090131
fc.bias_output: 3a23e3df
ONNXTRT_Broadcast_output: 3a23e3df
logits: 3e16905d
