TRT-101401-EntropyCalibration2
input: 3cbaab4e
/conv1/Conv_output_0: 3d497632
/Relu_output_0: 3d592956
/layer1/layer1.0/conv1/Conv_output_0: 3d1c9185
/layer1/layer1.0/Relu_output_0: 3d02690e
/layer1/layer1.0/conv2/Conv_output_0: 3d36cf29
/layer1/layer1.0/Add_output_0: 3d6bfd3b
/layer1/layer1.0/Relu_1_output_0: 3d7733b9
/layer1/layer1.1/conv1/Conv_output_0: 3d22f82d
/layer1/layer1.1/Relu_output_0: 3cd60c13
/layer1/layer1.1/conv2/Conv_output_0: 3d08d10c
/layer1/layer1.1/Add_output_0: 3d91ec42
/layer1/layer1.1/Relu_1_output_0: 3d91ec42
/layer1/layer1.2/conv1/Conv_output_0: 3cfcea76
/layer1/layer1.2/Relu_output_0: 3cbe3c09
/layer1/layer1.2/conv2/Conv_output_0: 3d0d3b05
/layer1/layer1.2/Add_output_0: 3d97bd09
/layer1/layer1.2/Relu_1_output_0: 3d97bd09
/layer1/layer1.3/conv1/Conv_output_0: 3ce14679
/layer1/layer1.3/Relu_output_0: 3c8a02de
/layer1/layer1.3/conv2/Conv_output_0: 3ce31f19
/layer1/layer1.3/Add_output_0: 3db345e9
/layer1/layer1.3/Relu_1_output_0: 3db345e9
/layer1/layer1.4/conv1/Conv_output_0: 3d0a065a
/layer1/layer1.4/Relu_output_0: 3ce61ee8
/layer1/layer1.4/conv2/Conv_output_0: 3d5e062f
/layer1/layer1.4/Add_output_0: 3dae0e36
/layer1/layer1.4/Relu_1_output_0: 3dbb537e
/layer2/layer2.0/conv1/Conv_output_0: 3d10b87e
/layer2/layer2.0/Relu_output_0: 3d10b87e
/layer2/layer2.0/conv2/Conv_output_0: 3d3fcf17
/layer2/layer2.0/shortcut/shortcut.0/Conv_output_0: 3d11ea68
/layer2/layer2.0/Add_output_0: 3da4e5a6
/layer2/layer2.0/Relu_1_output_0: 3da2cb7e
/layer2/layer2.1/conv1/Conv_output_0: 3d051097
/layer2/layer2.1/Relu_output_0: 3ccb41e3
/layer2/layer2.1/conv2/Conv_output_0: 3cf96863
/layer2/layer2.1/Add_output_0: 3da5b6be
/layer2/layer2.1/Relu_1_output_0: 3db95d7e
/layer2/layer2.2/conv1/Conv_output_0: 3ce6ddd4
/layer2/layer2.2/Relu_output_0: 3ca9d2dd
/layer2/layer2.2/conv2/Conv_output_0: 3d0e1ab8
/layer2/layer2.2/Add_output_0: 3dae99ea
/layer2/layer2.2/Relu_1_output_0: 3dae99ea
/layer2/layer2.3/conv1/Conv_output_0: 3cdbd783
/layer2/layer2.3/Relu_output_0: 3ca976ed
/layer2/layer2.3/conv2/Conv_output_0: 3d222a41
/layer2/layer2.3/Add_output_0: 3db28bc4
/layer2/layer2.3/Relu_1_output_0: 3dbe21da
/layer2/layer2.4/conv1/Conv_output_0: 3cca5317
/layer2/layer2.4/Relu_output_0: 3cab3474
/layer2/layer2.4/conv2/Conv_output_0: 3d14363e
/layer2/layer2.4/Add_output_0: 3dae7751
/layer2/layer2.4/Relu_1_output_0: 3dc787ae
/layer3/layer3.0/conv1/Conv_output_0: 3d00246d
/layer3/layer3.0/Relu_output_0: 3ce4e363
/layer3/layer3.0/conv2/Conv_output_0: 3d3ff7dd
/layer3/layer3.0/shortcut/shortcut.0/Conv_output_0: 3cece88d
/layer3/layer3.0/Add_output_0: 3d8eabcc
/layer3/layer3.0/Relu_1_output_0: 3d94f75b
/layer3/layer3.1/conv1/Conv_output_0: 3cfafc17
/layer3/layer3.1/Relu_output_0: 3cc4197a
/layer3/layer3.1/conv2/Conv_output_0: 3d658aef
/layer3/layer3.1/Add_output_0: 3d978eb4
/layer3/layer3.1/Relu_1_output_0: 3d996f97
/layer3/layer3.2/conv1/Conv_output_0: 3cfd6c11
/layer3/layer3.2/Relu_output_0: 3ce8cdcf
/layer3/layer3.2/conv2/Conv_output_0: 3d54b03f
/layer3/layer3.2/Add_output_0: 3d918e7f
/layer3/layer3.2/Relu_1_output_0: 3dd69d19
/layer3/layer3.3/conv1/Conv_output_0: 3d1bc633
/layer3/layer3.3/Relu_output_0: 3d23e360
/layer3/layer3.3/conv2/Conv_output_0: 3d290932
/layer3/layer3.3/Add_output_0: 3e03f2b2
/layer3/layer3.3/Relu_1_output_0: 3e073e94
/layer3/layer3.4/conv1/Conv_output_0: 3cf1d0b9
/layer3/layer3.4/Relu_output_0: 3cd12964
/layer3/layer3.4/conv2/Conv_output_0: 3c74013e
/layer3/layer3.4/Add_output_0: 3df681ac
/layer3/layer3.4/Relu_1_output_0: 3e0d0ebb
/avgpool/GlobalAveragePool_output_0: 3d43c68d
/Reshape_output_0: 3d43c68d
fc.weight_output: 3c0baaf9
/fc/Gemm_output: 3e21badf
fc.bias_output: 3a23e3df
ONNXTRT_Broadcast_output: 3a23e3df
logits: 3e235fc6
