TRT-101401-EntropyCalibration2
input: 3cb1ab7d
/features/features.0/Conv_output_0: 3d394c8a
/features/features.2/Relu_output_0: 3d49975d
/features/features.3/MaxPool_output_0: 3d49975d
/features/features.4/Conv_output_0: 3d34a4ea
/features/features.6/Relu_output_0: 3cdf732f
/features/features.7/MaxPool_output_0: 3cdf732f
/features/features.8/Conv_output_0: 3d1723af
/features/features.10/Relu_output_0: 3cc44a74
/features/features.11/Conv_output_0: 3cd7f3f4
/features/features.13/Relu_output_0: 3c9d0e2b
/features/features.14/Conv_output_0: 3d657f43
/features/features.16/Relu_output_0: 3d81352c
/features/features.17/MaxPool_output_0: 3d81352c
/global_avg_pool/GlobalAveragePool_output_0: 3c97064a
/Flatten_output_0: 3c97064a
classifier.0.weight_output: 3b6c7363
/classifier/classifier.0/Gemm_output: 3d6868b3
classifier.0.bias_output: 3ab65092
ONNXTRT_Broadcast_output: 3ab65092
/classifier/classifier.0/Gemm_output_0: 3d4ea83a
/classifier/classifier.1/Relu_output_0: 3d4ea83a
classifier.2.weight_output: 3bc559e9
/classifier/classifier.2/Gemm_output: 3e4887b7
classifier.2.bias_output: 39f47793
ONNXTRT_Broadcast_2_output: 39f47793
logits: 3e5411e1
