TRT-101401-EntropyCalibration2
input: 3cbaab4e
/features/features.0/Conv_output_0: 3d432e99
/features/features.2/Relu_output_0: 3d4a6fc8
/features/features.3/MaxPool_output_0: 3d4a6fc8
/features/features.4/Conv_output_0: 3d39bd7f
/features/features.6/Relu_output_0: 3cfdabd4
/features/features.7/MaxPool_output_0: 3cfdabd4
/features/features.8/Conv_output_0: 3d2d7899
/features/features.10/Relu_output_0: 3cc79517
/features/features.11/Conv_output_0: 3ce92d8d
/features/features.13/Relu_output_0: 3c8447f7
/features/features.14/Conv_output_0: 3d63490a
/features/features.16/Relu_output_0: 3d6a6456
/features/features.17/MaxPool_output_0: 3d6a6456
/global_avg_pool/GlobalAveragePool_output_0: 3c780039
/Flatten_output_0: 3c780039
classifier.0.weight_output: 3b6c7363
/classifier/classifier.0/Gemm_output: 3d0ef9c3
classifier.0.bias_output: 3ab65092
ONNXTRT_Broadcast_output: 3ab65092
/classifier/classifier.0/Gemm_output_0: 3d552eba
/classifier/classifier.1/Relu_output_0: 3d550f1a
classifier.2.weight_output: 3bc559e9
/classifier/classifier.2/Gemm_output: 3e362cad
classifier.2.bias_output: 39f47793
ONNXTRT_Broadcast_2_output: 39f47793
logits: 3e2856db
