TRT-101401-EntropyCalibration2
input: 3cb1ab7d
/features/features.0/Conv_output_0: 3d3b4a0c
/features/features.2/Relu_output_0: 3d4ce18e
/features/features.3/MaxPool_output_0: 3d4ce18e
/features/features.4/Conv_output_0: 3d239e0c
/features/features.6/Relu_output_0: 3cde2c4f
/features/features.7/MaxPool_output_0: 3cde2c4f
/features/features.8/Conv_output_0: 3d18de0b
/features/features.10/Relu_output_0: 3cc34a1a
/features/features.11/Conv_output_0: 3cd45b9d
/features/features.13/Relu_output_0: 3c907a88
/features/features.14/Conv_output_0: 3d772527
/features/features.16/Relu_output_0: 3d8098b4
/features/features.17/MaxPool_output_0: 3d8098b4
/global_avg_pool/GlobalAveragePool_output_0: 3c85c21e
/Flatten_output_0: 3c85c21e
classifier.0.weight_output: 3ba11f38
/classifier/classifier.0/Gemm_output: 3d45add8
classifier.0.bias_output: 3ad39f78
ONNXTRT_Broadcast_output: 3ad39f78
/classifier/classifier.0/Gemm_output_0: 3d4037d5
/classifier/classifier.1/Relu_output_0: 3d411336
classifier.2.weight_output: 3bf601e6
/classifier/classifier.2/Gemm_output: 3e512ed6
classifier.2.bias_output: 3a01b009
ONNXTRT_Broadcast_2_output: 3a01b009
logits: 3e512a3b
