TRT-101401-EntropyCalibration2
input: 3cbaab4e
/features/features.0/Conv_output_0: 3d4ed247
/features/features.2/Relu_output_0: 3d53a1fb
/features/features.3/MaxPool_output_0: 3d53a1fb
/features/features.4/Conv_output_0: 3d253a09
/features/features.6/Relu_output_0: 3ce0b4d8
/features/features.7/MaxPool_output_0: 3ce0b4d8
/features/features.8/Conv_output_0: 3d212f75
/features/features.10/Relu_output_0: 3cb36a95
/features/features.11/Conv_output_0: 3cf123bd
/features/features.13/Relu_output_0: 3c7c904a
/features/features.14/Conv_output_0: 3d6280a0
/features/features.16/Relu_output_0: 3d7f4841
/features/features.17/MaxPool_output_0: 3d7f4841
/global_avg_pool/GlobalAveragePool_output_0: 3c81ae0e
/Flatten_output_0: 3c81ae0e
classifier.0.weight_output: 3ba11f38
/classifier/classifier.0/Gemm_output: 3d367688
classifier.0.bias_output: 3ad39f78
ONNXTRT_Broadcast_output: 3ad39f78
/classifier/classifier.0/Gemm_output_0: 3d31bda1
/classifier/classifier.1/Relu_output_0: 3d3f83c9
classifier.2.weight_output: 3bf601e6
/classifier/classifier.2/Gemm_output: 3e3f7375
classifier.2.bias_output: 3a01b009
ONNXTRT_Broadcast_2_output: 3a01b009
logits: 3e2a2b83
