TRT-101401-EntropyCalibration2
input: 3cb1ab7d
/features/features.0/Conv_output_0: 3d473682
/features/features.2/Relu_output_0: 3d3fec03
/features/features.3/MaxPool_output_0: 3d3fec03
/features/features.4/Conv_output_0: 3d239e0c
/features/features.6/Relu_output_0: 3cde2c4f
/features/features.7/MaxPool_output_0: 3cde2c4f
/features/features.8/Conv_output_0: 3d11c72b
/features/features.10/Relu_output_0: 3cc332cc
/features/features.11/Conv_output_0: 3cd4c9df
/features/features.13/Relu_output_0: 3c96049f
/features/features.14/Conv_output_0: 3d7745d5
/features/features.16/Relu_output_0: 3d86d310
/features/features.17/MaxPool_output_0: 3d86d310
/global_avg_pool/GlobalAveragePool_output_0: 3c85c21e
/Flatten_output_0: 3c85c21e
classifier.0.weight_output: 3ba11f38
/classifier/classifier.0/Gemm_output: 3d45add8
classifier.0.bias_output: 3ad39f78
ONNXTRT_Broadcast_output: 3ad39f78
/classifier/classifier.0/Gemm_output_0: 3d4037d5
/classifier/classifier.1/Relu_output_0: 3d411336
classifier.2.weight_output: 3bf601e6
/classifier/classifier.2/Gemm_output: 3e512ed5
classifier.2.bias_output: 3a01b009
ONNXTRT_Broadcast_2_output: 3a01b009
logits: 3e512a39
