TRT-101401-EntropyCalibration2
input: 3cbaab4e
/conv1/Conv_output_0: 3d3f464e
/relu/Relu_output_0: 3d2d3b85
/maxpool1/MaxPool_output_0: 3d2d3b85
/fire2/conv1/Conv_output_0: 3d50093e
/fire2/relu1/Relu_output_0: 3d02adde
/fire2/conv2/Conv_output_0: 3d00e233
/fire2/conv3/Conv_output_0: 3d065d79
/fire2/Concat_output_0: 3d00e233
/fire2/relu2/Relu_output_0: 3d00d39d
/fire3/conv1/Conv_output_0: 3d11a73d
/fire3/relu1/Relu_output_0: 3d14c34f
/fire3/conv2/Conv_output_0: 3ce63642
/fire3/conv3/Conv_output_0: 3d0264bb
/fire3/Concat_output_0: 3cfe1e24
/fire3/relu2/Relu_output_0: 3ce9ed48
/fire4/conv1/Conv_output_0: 3d149100
/fire4/relu1/Relu_output_0: 3d1a0abe
/fire4/conv2/Conv_output_0: 3c67a110
/fire4/conv3/Conv_output_0: 3cdb5a82
/fire4/Concat_output_0: 3cc17dc7
/fire4/relu2/Relu_output_0: 3cb8606a
/maxpool2/MaxPool_output_0: 3cb8606a
/fire5/conv1/Conv_output_0: 3d395097
/fire5/relu1/Relu_output_0: 3d395097
/fire5/conv2/Conv_output_0: 3c945edf
/fire5/conv3/Conv_output_0: 3ccf8686
/fire5/Concat_output_0: 3cca3079
/fire5/relu2/Relu_output_0: 3cb482e6
/fire6/conv1/Conv_output_0: 3d0d1d92
/fire6/relu1/Relu_output_0: 3d29dcbc
/fire6/conv2/Conv_output_0: 3c4470ae
/fire6/conv3/Conv_output_0: 3cbfa5c5
/fire6/Concat_output_0: 3cb4e6a4
/fire6/relu2/Relu_output_0: 3caa3ce0
/fire7/conv1/Conv_output_0: 3d1e2ea3
/fire7/relu1/Relu_output_0: 3d31b675
/fire7/conv2/Conv_output_0: 3c3c2790
/fire7/conv3/Conv_output_0: 3cc801e9
/fire7/Concat_output_0: 3c91a97e
/fire7/relu2/Relu_output_0: 3cc7f8d8
/fire8/conv1/Conv_output_0: 3cd9e599
/fire8/relu1/Relu_output_0: 3d22012e
/fire8/conv2/Conv_output_0: 3bdf2796
/fire8/conv3/Conv_output_0: 3c90be08
/fire8/Concat_output_0: 3c90be08
/fire8/relu2/Relu_output_0: 3cb52d4d
/maxpool3/MaxPool_output_0: 3cb52d4d
/fire9/conv1/Conv_output_0: 3d1ce50b
/fire9/relu1/Relu_output_0: 3d43e8cd
/fire9/conv2/Conv_output_0: 3a914179
/fire9/conv3/Conv_output_0: 3ce8c219
/fire9/Concat_output_0: 3cd1952e
/fire9/relu2/Relu_output_0: 3d185413
/conv10/Conv_output_0: 3e812b2f
/avg_pool/AveragePool_output_0: 3e812b2f
logits: 3e07c61e
