TRT-101401-EntropyCalibration2
input: 3cb1ab7d
/conv1/Conv_output_0: 3d1db58f
/relu/Relu_output_0: 3d1d596c
/maxpool1/MaxPool_output_0: 3d1d596c
/fire2/conv1/Conv_output_0: 3d4f88b2
/fire2/relu1/Relu_output_0: 3cecf31d
/fire2/conv2/Conv_output_0: 3d0049a0
/fire2/conv3/Conv_output_0: 3cfc2fe6
/fire2/Concat_output_0: 3d0049a0
/fire2/relu2/Relu_output_0: 3ce95236
/fire3/conv1/Conv_output_0: 3d1f7f52
/fire3/relu1/Relu_output_0: 3d1f7f52
/fire3/conv2/Conv_output_0: 3cd7fd2c
/fire3/conv3/Conv_output_0: 3cf9eea1
/fire3/Concat_output_0: 3cef5fa3
/fire3/relu2/Relu_output_0: 3cd9a8d2
/fire4/conv1/Conv_output_0: 3d136556
/fire4/relu1/Relu_output_0: 3d1aa147
/fire4/conv2/Conv_output_0: 3c5bf3f9
/fire4/conv3/Conv_output_0: 3cdc92ae
/fire4/Concat_output_0: 3cc4fd91
/fire4/relu2/Relu_output_0: 3cbb69f8
/maxpool2/MaxPool_output_0: 3cbb69f8
/fire5/conv1/Conv_output_0: 3d2963b1
/fire5/relu1/Relu_output_0: 3d27afa8
/fire5/conv2/Conv_output_0: 3c899157
/fire5/conv3/Conv_output_0: 3cd626c8
/fire5/Concat_output_0: 3ccb0933
/fire5/relu2/Relu_output_0: 3cb8cf07
/fire6/conv1/Conv_output_0: 3d11e09c
/fire6/relu1/Relu_output_0: 3d20803f
/fire6/conv2/Conv_output_0: 3c43ca33
/fire6/conv3/Conv_output_0: 3cc5a510
/fire6/Concat_output_0: 3ca55e12
/fire6/relu2/Relu_output_0: 3cadc273
/fire7/conv1/Conv_output_0: 3d27a28a
/fire7/relu1/Relu_output_0: 3d3fbe6b
/fire7/conv2/Conv_output_0: 3c3d74a2
/fire7/conv3/Conv_output_0: 3cd5b906
/fire7/Concat_output_0: 3c96ad22
/fire7/relu2/Relu_output_0: 3cbff118
/fire8/conv1/Conv_output_0: 3ce1ad4b
/fire8/relu1/Relu_output_0: 3d39101a
/fire8/conv2/Conv_output_0: 3c14e024
/fire8/conv3/Conv_output_0: 3c980592
/fire8/Concat_output_0: 3c980592
/fire8/relu2/Relu_output_0: 3c980592
/maxpool3/MaxPool_output_0: 3c980592
/fire9/conv1/Conv_output_0: 3d1a9381
/fire9/relu1/Relu_output_0: 3d4af26d
/fire9/conv2/Conv_output_0: 3b204c88
/fire9/conv3/Conv_output_0: 3cdaa556
/fire9/Concat_output_0: 3cdaa556
/fire9/relu2/Relu_output_0: 3d23613a
/conv10/Conv_output_0: 3e948d59
/avg_pool/AveragePool_output_0: 3e948d59
logits: 3e446d5b
