TRT-101401-EntropyCalibration2
input: 3cb1ab7d
/conv1/Conv_output_0: 3d1cb1bb
/relu/Relu_output_0: 3d2bd1d9
/maxpool1/MaxPool_output_0: 3d2bd1d9
/fire2/conv1/Conv_output_0: 3d4f88b2
/fire2/relu1/Relu_output_0: 3cece2d8
/fire2/conv2/Conv_output_0: 3d0049a0
/fire2/conv3/Conv_output_0: 3cf7be4b
/fire2/Concat_output_0: 3cf445e3
/fire2/relu2/Relu_output_0: 3ce95236
/fire3/conv1/Conv_output_0: 3d18b263
/fire3/relu1/Relu_output_0: 3d1fa079
/fire3/conv2/Conv_output_0: 3cd9b0c3
/fire3/conv3/Conv_output_0: 3cf8f17c
/fire3/Concat_output_0: 3ceaa42f
/fire3/relu2/Relu_output_0: 3cd9a8d2
/fire4/conv1/Conv_output_0: 3d136556
/fire4/relu1/Relu_output_0: 3d1aa147
/fire4/conv2/Conv_output_0: 3c6bf09f
/fire4/conv3/Conv_output_0: 3cd33f52
/fire4/Concat_output_0: 3cca2077
/fire4/relu2/Relu_output_0: 3cb59c9e
/maxpool2/MaxPool_output_0: 3cb59c9e
/fire5/conv1/Conv_output_0: 3d2963b1
/fire5/relu1/Relu_output_0: 3d27afa8
/fire5/conv2/Conv_output_0: 3c899157
/fire5/conv3/Conv_output_0: 3cd626c8
/fire5/Concat_output_0: 3ccb0933
/fire5/relu2/Relu_output_0: 3cb8b5f7
/fire6/conv1/Conv_output_0: 3d17c571
/fire6/relu1/Relu_output_0: 3d1d15fe
/fire6/conv2/Conv_output_0: 3c46ada6
/fire6/conv3/Conv_output_0: 3cca9271
/fire6/Concat_output_0: 3cac4dd0
/fire6/relu2/Relu_output_0: 3caddf97
/fire7/conv1/Conv_output_0: 3d2e2edb
/fire7/relu1/Relu_output_0: 3d3fa0c7
/fire7/conv2/Conv_output_0: 3c7ef98a
/fire7/conv3/Conv_output_0: 3cd93074
/fire7/Concat_output_0: 3c9aa6fc
/fire7/relu2/Relu_output_0: 3cb95130
/fire8/conv1/Conv_output_0: 3cd26505
/fire8/relu1/Relu_output_0: 3d34f07a
/fire8/conv2/Conv_output_0: 3c14e024
/fire8/conv3/Conv_output_0: 3c980592
/fire8/Concat_output_0: 3c980592
/fire8/relu2/Relu_output_0: 3c980592
/maxpool3/MaxPool_output_0: 3c980592
/fire9/conv1/Conv_output_0: 3d1a9381
/fire9/relu1/Relu_output_0: 3d4af26d
/fire9/conv2/Conv_output_0: 3b204c88
/fire9/conv3/Conv_output_0: 3cd64bdb
/fire9/Concat_output_0: 3cd64bdb
/fire9/relu2/Relu_output_0: 3d23dbe0
/conv10/Conv_output_0: 3e94a031
/avg_pool/AveragePool_output_0: 3e94a031
logits: 3e446d5b
