TRT-101401-EntropyCalibration2
input: 3cbaab4e
/conv1/Conv_output_0: 3d2f9cd3
/relu/Relu_output_0: 3d2ecbc2
/maxpool1/MaxPool_output_0: 3d2ecbc2
/fire2/conv1/Conv_output_0: 3d47685d
/fire2/relu1/Relu_output_0: 3ce4b3d2
/fire2/conv2/Conv_output_0: 3d0734fa
/fire2/conv3/Conv_output_0: 3d033ed8
/fire2/Concat_output_0: 3d07adc7
/fire2/relu2/Relu_output_0: 3d08d1f1
/fire3/conv1/Conv_output_0: 3d15cb5a
/fire3/relu1/Relu_output_0: 3d15cb5a
/fire3/conv2/Conv_output_0: 3cd56c52
/fire3/conv3/Conv_output_0: 3d02f5f8
/fire3/Concat_output_0: 3ceeeb0c
/fire3/relu2/Relu_output_0: 3cc30134
/fire4/conv1/Conv_output_0: 3d091913
/fire4/relu1/Relu_output_0: 3d2fed4d
/fire4/conv2/Conv_output_0: 3c6dcdf7
/fire4/conv3/Conv_output_0: 3cc91342
/fire4/Concat_output_0: 3cc0b57f
/fire4/relu2/Relu_output_0: 3ca8b57a
/maxpool2/MaxPool_output_0: 3ca8b57a
/fire5/conv1/Conv_output_0: 3d2ca7c6
/fire5/relu1/Relu_output_0: 3d2ca7c6
/fire5/conv2/Conv_output_0: 3c7abfea
/fire5/conv3/Conv_output_0: 3cbf09c9
/fire5/Concat_output_0: 3cbf09c9
/fire5/relu2/Relu_output_0: 3cb2e0b9
/fire6/conv1/Conv_output_0: 3d070b8d
/fire6/relu1/Relu_output_0: 3d070b8d
/fire6/conv2/Conv_output_0: 3c452101
/fire6/conv3/Conv_output_0: 3cb2ff00
/fire6/Concat_output_0: 3cb87fa0
/fire6/relu2/Relu_output_0: 3ca4d53b
/fire7/conv1/Conv_output_0: 3d13569d
/fire7/relu1/Relu_output_0: 3d22a518
/fire7/conv2/Conv_output_0: 3c1db617
/fire7/conv3/Conv_output_0: 3cb5ca98
/fire7/Concat_output_0: 3cb5ca98
/fire7/relu2/Relu_output_0: 3c9e2f84
/fire8/conv1/Conv_output_0: 3d2456ab
/fire8/relu1/Relu_output_0: 3d15f24e
/fire8/conv2/Conv_output_0: 3c234cde
/fire8/conv3/Conv_output_0: 3cad5619
/fire8/Concat_output_0: 3c9b76d9
/fire8/relu2/Relu_output_0: 3cdd396f
/maxpool3/MaxPool_output_0: 3cdd396f
/fire9/conv1/Conv_output_0: 3d2cb1ee
/fire9/relu1/Relu_output_0: 3d186c04
/fire9/conv2/Conv_output_0: 3aaf7ea0
/fire9/conv3/Conv_output_0: 3cfaea45
/fire9/Concat_output_0: 3cfaea45
/fire9/relu2/Relu_output_0: 3d13d6d2
/conv10/Conv_output_0: 3e543223
/avg_pool/AveragePool_output_0: 3e543223
logits: 3e001580
