TRT-101401-EntropyCalibration2
input: 3cb1ab7d
/conv1/Conv_output_0: 3d2bae26
/relu/Relu_output_0: 3d23c432
/maxpool1/MaxPool_output_0: 3d23c432
/fire2/conv1/Conv_output_0: 3d5380bb
/fire2/relu1/Relu_output_0: 3ceb0ff0
/fire2/conv2/Conv_output_0: 3cfb5418
/fire2/conv3/Conv_output_0: 3cf58f3c
/fire2/Concat_output_0: 3cf4ca05
/fire2/relu2/Relu_output_0: 3cfb5418
/fire3/conv1/Conv_output_0: 3d14cbf0
/fire3/relu1/Relu_output_0: 3d14cbf0
/fire3/conv2/Conv_output_0: 3ccc156d
/fire3/conv3/Conv_output_0: 3cf44903
/fire3/Concat_output_0: 3ce1b85c
/fire3/relu2/Relu_output_0: 3cccb1a9
/fire4/conv1/Conv_output_0: 3d0c0960
/fire4/relu1/Relu_output_0: 3d16e5f0
/fire4/conv2/Conv_output_0: 3c75805a
/fire4/conv3/Conv_output_0: 3ccef89f
/fire4/Concat_output_0: 3cbf44dc
/fire4/relu2/Relu_output_0: 3cac7c1e
/maxpool2/MaxPool_output_0: 3cac7c1e
/fire5/conv1/Conv_output_0: 3d1b388e
/fire5/relu1/Relu_output_0: 3d1b388e
/fire5/conv2/Conv_output_0: 3c543d78
/fire5/conv3/Conv_output_0: 3ccc0272
/fire5/Concat_output_0: 3ca9380b
/fire5/relu2/Relu_output_0: 3cb4a0bd
/fire6/conv1/Conv_output_0: 3d15c272
/fire6/relu1/Relu_output_0: 3d167a80
/fire6/conv2/Conv_output_0: 3c71fcdd
/fire6/conv3/Conv_output_0: 3cc37233
/fire6/Concat_output_0: 3cb4f44d
/fire6/relu2/Relu_output_0: 3caf4521
/fire7/conv1/Conv_output_0: 3d22dc8d
/fire7/relu1/Relu_output_0: 3d22dc8d
/fire7/conv2/Conv_output_0: 3c47d7b2
/fire7/conv3/Conv_output_0: 3ccada8f
/fire7/Concat_output_0: 3cb03ffe
/fire7/relu2/Relu_output_0: 3cab77d7
/fire8/conv1/Conv_output_0: 3d253f75
/fire8/relu1/Relu_output_0: 3d3649bf
/fire8/conv2/Conv_output_0: 3c2041ef
/fire8/conv3/Conv_output_0: 3cab1b97
/fire8/Concat_output_0: 3c9f9ed6
/fire8/relu2/Relu_output_0: 3ccbb321
/maxpool3/MaxPool_output_0: 3ccbb321
/fire9/conv1/Conv_output_0: 3d2cd02e
/fire9/relu1/Relu_output_0: 3d5083bc
/fire9/conv2/Conv_output_0: 3bf00cac
/fire9/conv3/Conv_output_0: 3cfe1c30
/fire9/Concat_output_0: 3cfe1c30
/fire9/relu2/Relu_output_0: 3d1d79bb
/conv10/Conv_output_0: 3e817fa9
/avg_pool/AveragePool_output_0: 3e817fa9
logits: 3e23eaa4
