TRT-101401-EntropyCalibration2
input: 3cbaab4e
/conv1/Conv_output_0: 3d3491a8
/Relu_output_0: 3d223b2e
/layer1/layer1.0/conv1/Conv_output_0: 3d1ab607
/layer1/layer1.0/Relu_output_0: 3cfac8a2
/layer1/layer1.0/conv2/Conv_output_0: 3d3c5cf8
/layer1/layer1.0/Add_output_0: 3d4fbda7
/layer1/layer1.0/Relu_1_output_0: 3d56ceb6
/layer1/layer1.1/conv1/Conv_output_0: 3d1a9978
/layer1/layer1.1/Relu_output_0: 3cf78ebb
/layer1/layer1.1/conv2/Conv_output_0: 3d12777c
/layer1/layer1.1/Add_output_0: 3d8a0115
/layer1/layer1.1/Relu_1_output_0: 3d8a0115
/layer1/layer1.2/conv1/Conv_output_0: 3cff25b3
/layer1/layer1.2/Relu_output_0: 3cd07dcb
/layer1/layer1.2/conv2/Conv_output_0: 3d033eba
/layer1/layer1.2/Add_output_0: 3d949f7a
/layer1/layer1.2/Relu_1_output_0: 3d9bead6
/layer1/layer1.3/conv1/Conv_output_0: 3cf63b9c
/layer1/layer1.3/Relu_output_0: 3c86fdba
/layer1/layer1.3/conv2/Conv_output_0: 3cf52444
/layer1/layer1.3/Add_output_0: 3db10dbd
/layer1/layer1.3/Relu_1_output_0: 3db10dbd
/layer1/layer1.4/conv1/Conv_output_0: 3d190f6c
/layer1/layer1.4/Relu_output_0: 3cde0600
/layer1/layer1.4/conv2/Conv_output_0: 3d64d5d8
/layer1/layer1.4/Add_output_0: 3dbd1fca
/layer1/layer1.4/Relu_1_output_0: 3dbd1fca
/layer2/layer2.0/conv1/Conv_output_0: 3d0451c1
/layer2/layer2.0/Relu_output_0: 3d08064a
/layer2/layer2.0/conv2/Conv_output_0: 3d45cd98
/layer2/layer2.0/shortcut/shortcut.0/Conv_output_0: 3d154a47
/layer2/layer2.0/Add_output_0: 3d98045f
/layer2/layer2.0/Relu_1_output_0: 3d9d832b
/layer2/layer2.1/conv1/Conv_output_0: 3cfa0156
/layer2/layer2.1/Relu_output_0: 3cc93e05
/layer2/layer2.1/conv2/Conv_output_0: 3d0e9916
/layer2/layer2.1/Add_output_0: 3daa4da8
/layer2/layer2.1/Relu_1_output_0: 3db510f7
/layer2/layer2.2/conv1/Conv_output_0: 3cecefda
/layer2/layer2.2/Relu_output_0: 3cbd906e
/layer2/layer2.2/conv2/Conv_output_0: 3d06030d
/layer2/layer2.2/Add_output_0: 3db06016
/layer2/layer2.2/Relu_1_output_0: 3db06016
/layer2/layer2.3/conv1/Conv_output_0: 3cda93cb
/layer2/layer2.3/Relu_output_0: 3cb5a6aa
/layer2/layer2.3/conv2/Conv_output_0: 3d1b633a
/layer2/layer2.3/Add_output_0: 3da6558d
/layer2/layer2.3/Relu_1_output_0: 3dc420af
/layer2/layer2.4/conv1/Conv_output_0: 3cdc4a13
/layer2/layer2.4/Relu_output_0: 3cc1a47e
/layer2/layer2.4/conv2/Conv_output_0: 3d1004ff
/layer2/layer2.4/Add_output_0: 3dbb5918
/layer2/layer2.4/Relu_1_output_0: 3dc59268
/layer3/layer3.0/conv1/Conv_output_0: 3cee5ee8
/layer3/layer3.0/Relu_output_0: 3cff352f
/layer3/layer3.0/conv2/Conv_output_0: 3d3c5327
/layer3/layer3.0/shortcut/shortcut.0/Conv_output_0: 3ccfb7e9
/layer3/layer3.0/Add_output_0: 3d84fcd1
/layer3/layer3.0/Relu_1_output_0: 3d8e468d
/layer3/layer3.1/conv1/Conv_output_0: 3cf17b61
/layer3/layer3.1/Relu_output_0: 3ccfafff
/layer3/layer3.1/conv2/Conv_output_0: 3d5087aa
/layer3/layer3.1/Add_output_0: 3d8ad1d4
/layer3/layer3.1/Relu_1_output_0: 3d997c60
/layer3/layer3.2/conv1/Conv_output_0: 3ca72350
/layer3/layer3.2/Relu_output_0: 3ceebca0
/layer3/layer3.2/conv2/Conv_output_0: 3d858428
/layer3/layer3.2/Add_output_0: 3dad3d7f
/layer3/layer3.2/Relu_1_output_0: 3dd76f65
/layer3/layer3.3/conv1/Conv_output_0: 3ceffde4
/layer3/layer3.3/Relu_output_0: 3d20897b
/layer3/layer3.3/conv2/Conv_output_0: 3d6933db
/layer3/layer3.3/Add_output_0: 3def18b9
/layer3/layer3.3/Relu_1_output_0: 3e147afe
/layer3/layer3.4/conv1/Conv_output_0: 3c3a3505
/layer3/layer3.4/Relu_output_0: 3d08be1a
/layer3/layer3.4/conv2/Conv_output_0: 3c74033c
/layer3/layer3.4/Add_output_0: 3e0cabad
/layer3/layer3.4/Relu_1_output_0: 3e1c31b0
/avgpool/GlobalAveragePool_output_0: 3d30e74a
/Reshape_output_0: 3d30e74a
fc.weight_output: 3bd77705
/fc/Gemm_output: 3e378311
fc.bias_output: 3a1d86e6
ONNXTRT_Broadcast_output: 3a1d86e6
logits: 3e3b8a01
