TRT-101401-EntropyCalibration2
input: 3cb1ab7d
/conv1/Conv_output_0: 3d344af8
/Relu_output_0: 3d22eb46
/layer1/layer1.0/conv1/Conv_output_0: 3d23fb29
/layer1/layer1.0/Relu_output_0: 3cfb65b5
/layer1/layer1.0/conv2/Conv_output_0: 3d327d28
/layer1/layer1.0/Add_output_0: 3d5ee6f5
/layer1/layer1.0/Relu_1_output_0: 3d5a5ff4
/layer1/layer1.1/conv1/Conv_output_0: 3d0d7a66
/layer1/layer1.1/Relu_output_0: 3cf530ea
/layer1/layer1.1/conv2/Conv_output_0: 3d1083d6
/layer1/layer1.1/Add_output_0: 3d8a7269
/layer1/layer1.1/Relu_1_output_0: 3d93ea2f
/layer1/layer1.2/conv1/Conv_output_0: 3d043fee
/layer1/layer1.2/Relu_output_0: 3cc6a318
/layer1/layer1.2/conv2/Conv_output_0: 3d027f36
/layer1/layer1.2/Add_output_0: 3d9ac32b
/layer1/layer1.2/Relu_1_output_0: 3d9ac32b
/layer1/layer1.3/conv1/Conv_output_0: 3cf21c32
/layer1/layer1.3/Relu_output_0: 3c8e8fe4
/layer1/layer1.3/conv2/Conv_output_0: 3cf53222
/layer1/layer1.3/Add_output_0: 3db27366
/layer1/layer1.3/Relu_1_output_0: 3db892d8
/layer1/layer1.4/conv1/Conv_output_0: 3d14f5b1
/layer1/layer1.4/Relu_output_0: 3ce6d977
/layer1/layer1.4/conv2/Conv_output_0: 3d6697ba
/layer1/layer1.4/Add_output_0: 3db3ceba
/layer1/layer1.4/Relu_1_output_0: 3db3ceba
/layer2/layer2.0/conv1/Conv_output_0: 3d0f4ae2
/layer2/layer2.0/Relu_output_0: 3d14fe2b
/layer2/layer2.0/conv2/Conv_output_0: 3d446a6e
/layer2/layer2.0/shortcut/shortcut.0/Conv_output_0: 3d1810fa
/layer2/layer2.0/Add_output_0: 3d9fede2
/layer2/layer2.0/Relu_1_output_0: 3da81b5e
/layer2/layer2.1/conv1/Conv_output_0: 3d0261bb
/layer2/layer2.1/Relu_output_0: 3cdcac57
/layer2/layer2.1/conv2/Conv_output_0: 3cfd817f
/layer2/layer2.1/Add_output_0: 3da2c213
/layer2/layer2.1/Relu_1_output_0: 3db723ed
/layer2/layer2.2/conv1/Conv_output_0: 3cf49312
/layer2/layer2.2/Relu_output_0: 3ccaa6f6
/layer2/layer2.2/conv2/Conv_output_0: 3d0d5f51
/layer2/layer2.2/Add_output_0: 3da38fcb
/layer2/layer2.2/Relu_1_output_0: 3dba9400
/layer2/layer2.3/conv1/Conv_output_0: 3cee5b42
/layer2/layer2.3/Relu_output_0: 3cd70cd2
/layer2/layer2.3/conv2/Conv_output_0: 3d172fbf
/layer2/layer2.3/Add_output_0: 3db82edd
/layer2/layer2.3/Relu_1_output_0: 3dc3abcc
/layer2/layer2.4/conv1/Conv_output_0: 3ce86a29
/layer2/layer2.4/Relu_output_0: 3ce40ea2
/layer2/layer2.4/conv2/Conv_output_0: 3d2f2781
/layer2/layer2.4/Add_output_0: 3db0f60a
/layer2/layer2.4/Relu_1_output_0: 3dcd2a6b
/layer3/layer3.0/conv1/Conv_output_0: 3d036b16
/layer3/layer3.0/Relu_output_0: 3d145ee9
/layer3/layer3.0/conv2/Conv_output_0: 3d4ad125
/layer3/layer3.0/shortcut/shortcut.0/Conv_output_0: 3cf2cccf
/layer3/layer3.0/Add_output_0: 3d8f1d0c
/layer3/layer3.0/Relu_1_output_0: 3da3ae41
/layer3/layer3.1/conv1/Conv_output_0: 3d0cbcfb
/layer3/layer3.1/Relu_output_0: 3cf2ad79
/layer3/layer3.1/conv2/Conv_output_0: 3d56dbc7
/layer3/layer3.1/Add_output_0: 3d92f5ab
/layer3/layer3.1/Relu_1_output_0: 3da239b3
/layer3/layer3.2/conv1/Conv_output_0: 3ce3f615
/layer3/layer3.2/Relu_output_0: 3d06bead
/layer3/layer3.2/conv2/Conv_output_0: 3d5658cc
/layer3/layer3.2/Add_output_0: 3db80482
/layer3/layer3.2/Relu_1_output_0: 3e0211ac
/layer3/layer3.3/conv1/Conv_output_0: 3cfdf773
/layer3/layer3.3/Relu_output_0: 3d38a97a
/layer3/layer3.3/conv2/Conv_output_0: 3d66b350
/layer3/layer3.3/Add_output_0: 3de346d7
/layer3/layer3.3/Relu_1_output_0: 3e0e052d
/layer3/layer3.4/conv1/Conv_output_0: 3bce24d0
/layer3/layer3.4/Relu_output_0: 3d0923a0
/layer3/layer3.4/conv2/Conv_output_0: 3c77331a
/layer3/layer3.4/Add_output_0: 3e14bb60
/layer3/layer3.4/Relu_1_output_0: 3e0f250b
/avgpool/GlobalAveragePool_output_0: 3d4372bc
/Reshape_output_0: 3d4372bc
fc.weight_output: 3bd77705
/fc/Gemm_output: 3e576a66
fc.bias_output: 3a1d86e6
ONNXTRT_Broadcast_output: 3a1d86e6
logits: 3e574a60
