TRT-101401-EntropyCalibration2
input: 3cb1ab7d
/conv1/Conv_output_0: 3d4ef7f8
/Relu_output_0: 3d4e3f99
/layer1/layer1.0/conv1/Conv_output_0: 3d206951
/layer1/layer1.0/Relu_output_0: 3d1ca937
/layer1/layer1.0/conv2/Conv_output_0: 3d3c4d33
/layer1/layer1.0/Add_output_0: 3d575364
/layer1/layer1.0/Relu_1_output_0: 3d578a23
/layer1/layer1.1/conv1/Conv_output_0: 3d1c24c5
/layer1/layer1.1/Relu_output_0: 3ce67d54
/layer1/layer1.1/conv2/Conv_output_0: 3d11465c
/layer1/layer1.1/Add_output_0: 3d8a145f
/layer1/layer1.1/Relu_1_output_0: 3d93bad9
/layer1/layer1.2/conv1/Conv_output_0: 3d0e1c8a
/layer1/layer1.2/Relu_output_0: 3cbbc0a2
/layer1/layer1.2/conv2/Conv_output_0: 3cffd79b
/layer1/layer1.2/Add_output_0: 3d95d3f6
/layer1/layer1.2/Relu_1_output_0: 3d95d3f6
/layer1/layer1.3/conv1/Conv_output_0: 3cf8c1f0
/layer1/layer1.3/Relu_output_0: 3c901e00
/layer1/layer1.3/conv2/Conv_output_0: 3cef5aaa
/layer1/layer1.3/Add_output_0: 3db3536a
/layer1/layer1.3/Relu_1_output_0: 3db3536a
/layer1/layer1.4/conv1/Conv_output_0: 3d1167c5
/layer1/layer1.4/Relu_output_0: 3cea7646
/layer1/layer1.4/conv2/Conv_output_0: 3d68ccbc
/layer1/layer1.4/Add_output_0: 3db5da2a
/layer1/layer1.4/Relu_1_output_0: 3db5da2a
/layer2/layer2.0/conv1/Conv_output_0: 3d1463a3
/layer2/layer2.0/Relu_output_0: 3d1463a3
/layer2/layer2.0/conv2/Conv_output_0: 3d3d7fdd
/layer2/layer2.0/shortcut/shortcut.0/Conv_output_0: 3d140ea9
/layer2/layer2.0/Add_output_0: 3d9aa7a6
/layer2/layer2.0/Relu_1_output_0: 3da516c9
/layer2/layer2.1/conv1/Conv_output_0: 3cfe6a7d
/layer2/layer2.1/Relu_output_0: 3cd6295f
/layer2/layer2.1/conv2/Conv_output_0: 3cf3e970
/layer2/layer2.1/Add_output_0: 3da7c1d1
/layer2/layer2.1/Relu_1_output_0: 3dad2bef
/layer2/layer2.2/conv1/Conv_output_0: 3cf0b0b9
/layer2/layer2.2/Relu_output_0: 3cd1b339
/layer2/layer2.2/conv2/Conv_output_0: 3d0bbffb
/layer2/layer2.2/Add_output_0: 3da08aa1
/layer2/layer2.2/Relu_1_output_0: 3db0f520
/layer2/layer2.3/conv1/Conv_output_0: 3cefefab
/layer2/layer2.3/Relu_output_0: 3cbcf909
/layer2/layer2.3/conv2/Conv_output_0: 3d19fd63
/layer2/layer2.3/Add_output_0: 3db1111d
/layer2/layer2.3/Relu_1_output_0: 3dbf4ebe
/layer2/layer2.4/conv1/Conv_output_0: 3cd5fef6
/layer2/layer2.4/Relu_output_0: 3cd02614
/layer2/layer2.4/conv2/Conv_output_0: 3d1358d7
/layer2/layer2.4/Add_output_0: 3db1613a
/layer2/layer2.4/Relu_1_output_0: 3dd86ef3
/layer3/layer3.0/conv1/Conv_output_0: 3d0b8001
/layer3/layer3.0/Relu_output_0: 3d04f765
/layer3/layer3.0/conv2/Conv_output_0: 3d490eb1
/layer3/layer3.0/shortcut/shortcut.0/Conv_output_0: 3ce87927
/layer3/layer3.0/Add_output_0: 3d84bd08
/layer3/layer3.0/Relu_1_output_0: 3d957d67
/layer3/layer3.1/conv1/Conv_output_0: 3d0c808a
/layer3/layer3.1/Relu_output_0: 3ce83a34
/layer3/layer3.1/conv2/Conv_output_0: 3d5033fc
/layer3/layer3.1/Add_output_0: 3d8a7802
/layer3/layer3.1/Relu_1_output_0: 3d94669a
/layer3/layer3.2/conv1/Conv_output_0: 3d030d8a
/layer3/layer3.2/Relu_output_0: 3d076151
/layer3/layer3.2/conv2/Conv_output_0: 3d799fc8
/layer3/layer3.2/Add_output_0: 3db5daa6
/layer3/layer3.2/Relu_1_output_0: 3df2dad2
/layer3/layer3.3/conv1/Conv_output_0: 3d1f3f18
/layer3/layer3.3/Relu_output_0: 3d39621b
/layer3/layer3.3/conv2/Conv_output_0: 3d61ad4e
/layer3/layer3.3/Add_output_0: 3e1d05e8
/layer3/layer3.3/Relu_1_output_0: 3e1c6998
/layer3/layer3.4/conv1/Conv_output_0: 3cbf5b19
/layer3/layer3.4/Relu_output_0: 3cdba83f
/layer3/layer3.4/conv2/Conv_output_0: 3c462406
/layer3/layer3.4/Add_output_0: 3e0a69e1
/layer3/layer3.4/Relu_1_output_0: 3e1bdacf
/avgpool/GlobalAveragePool_output_0: 3d660af5
/Reshape_output_0: 3d660af5
fc.weight_output: 3bf699d7
/fc/Gemm_output: 3e440d94
fc.bias_output: 3a39dfba
ONNXTRT_Broadcast_output: 3a39dfba
logits: 3e322347
