TRT-101401-EntropyCalibration2
input: 3cbaab4e
/conv1/Conv_output_0: 3d37cc3f
/Relu_output_0: 3d3487ff
/layer1/layer1.0/conv1/Conv_output_0: 3d1b8af1
/layer1/layer1.0/Relu_output_0: 3d0da4d6
/layer1/layer1.0/conv2/Conv_output_0: 3d3b326b
/layer1/layer1.0/Add_output_0: 3d513ff8
/layer1/layer1.0/Relu_1_output_0: 3d58ff21
/layer1/layer1.1/conv1/Conv_output_0: 3d2091a8
/layer1/layer1.1/Relu_output_0: 3cfa7361
/layer1/layer1.1/conv2/Conv_output_0: 3d10efb4
/layer1/layer1.1/Add_output_0: 3d934593
/layer1/layer1.1/Relu_1_output_0: 3d934593
/layer1/layer1.2/conv1/Conv_output_0: 3d11956f
/layer1/layer1.2/Relu_output_0: 3cb3110e
/layer1/layer1.2/conv2/Conv_output_0: 3d047cb0
/layer1/layer1.2/Add_output_0: 3d9cd4fd
/layer1/layer1.2/Relu_1_output_0: 3d9c0427
/layer1/layer1.3/conv1/Conv_output_0: 3cef541f
/layer1/layer1.3/Relu_output_0: 3c86bb6b
/layer1/layer1.3/conv2/Conv_output_0: 3ce9076c
/layer1/layer1.3/Add_output_0: 3db2c932
/layer1/layer1.3/Relu_1_output_0: 3db2c932
/layer1/layer1.4/conv1/Conv_output_0: 3d1d9b36
/layer1/layer1.4/Relu_output_0: 3cee4783
/layer1/layer1.4/conv2/Conv_output_0: 3d5846a7
/layer1/layer1.4/Add_output_0: 3db27e0f
/layer1/layer1.4/Relu_1_output_0: 3daf6131
/layer2/layer2.0/conv1/Conv_output_0: 3d0f16b6
/layer2/layer2.0/Relu_output_0: 3d0f16b6
/layer2/layer2.0/conv2/Conv_output_0: 3d2e741e
/layer2/layer2.0/shortcut/shortcut.0/Conv_output_0: 3d1589a2
/layer2/layer2.0/Add_output_0: 3d98409f
/layer2/layer2.0/Relu_1_output_0: 3d989aac
/layer2/layer2.1/conv1/Conv_output_0: 3cfa73b1
/layer2/layer2.1/Relu_output_0: 3ccc61f8
/layer2/layer2.1/conv2/Conv_output_0: 3cf3bf1f
/layer2/layer2.1/Add_output_0: 3d9f5d05
/layer2/layer2.1/Relu_1_output_0: 3dabea30
/layer2/layer2.2/conv1/Conv_output_0: 3ce94429
/layer2/layer2.2/Relu_output_0: 3cc87bdf
/layer2/layer2.2/conv2/Conv_output_0: 3d0396da
/layer2/layer2.2/Add_output_0: 3d9ea2f3
/layer2/layer2.2/Relu_1_output_0: 3da0736d
/layer2/layer2.3/conv1/Conv_output_0: 3cf61f08
/layer2/layer2.3/Relu_output_0: 3ca212e6
/layer2/layer2.3/conv2/Conv_output_0: 3d18d49f
/layer2/layer2.3/Add_output_0: 3db9dbb4
/layer2/layer2.3/Relu_1_output_0: 3db98f8b
/layer2/layer2.4/conv1/Conv_output_0: 3cd5ae77
/layer2/layer2.4/Relu_output_0: 3ca02b48
/layer2/layer2.4/conv2/Conv_output_0: 3d01a2b0
/layer2/layer2.4/Add_output_0: 3da97f2e
/layer2/layer2.4/Relu_1_output_0: 3db3420a
/layer3/layer3.0/conv1/Conv_output_0: 3cec9664
/layer3/layer3.0/Relu_output_0: 3d14922b
/layer3/layer3.0/conv2/Conv_output_0: 3d380fa5
/layer3/layer3.0/shortcut/shortcut.0/Conv_output_0: 3cc37546
/layer3/layer3.0/Add_output_0: 3d69cc9e
/layer3/layer3.0/Relu_1_output_0: 3d69cc9e
/layer3/layer3.1/conv1/Conv_output_0: 3d0d2c58
/layer3/layer3.1/Relu_output_0: 3ccd54d6
/layer3/layer3.1/conv2/Conv_output_0: 3d52d3f0
/layer3/layer3.1/Add_output_0: 3d872008
/layer3/layer3.1/Relu_1_output_0: 3d77fac3
/layer3/layer3.2/conv1/Conv_output_0: 3d04ca5b
/layer3/layer3.2/Relu_output_0: 3cf2f4d5
/layer3/layer3.2/conv2/Conv_output_0: 3d80583b
/layer3/layer3.2/Add_output_0: 3db0bdad
/layer3/layer3.2/Relu_1_output_0: 3de54de8
/layer3/layer3.3/conv1/Conv_output_0: 3d1e3546
/layer3/layer3.3/Relu_output_0: 3d24e870
/layer3/layer3.3/conv2/Conv_output_0: 3d6d14ec
/layer3/layer3.3/Add_output_0: 3e20c864
/layer3/layer3.3/Relu_1_output_0: 3e1d63ee
/layer3/layer3.4/conv1/Conv_output_0: 3cad9e46
/layer3/layer3.4/Relu_output_0: 3cca34cc
/layer3/layer3.4/conv2/Conv_output_0: 3c44cec5
/layer3/layer3.4/Add_output_0: 3e16cd75
/layer3/layer3.4/Relu_1_output_0: 3e119442
/avgpool/GlobalAveragePool_output_0: 3d390407
/Reshape_output_0: 3d390407
fc.weight_output: 3bf699d7
/fc/Gemm_output: 3e28a958
fc.bias_output: 3a39dfba
ONNXTRT_Broadcast_output: 3a39dfba
logits: 3e298e9c
