TRT-101401-EntropyCalibration2
input: 3cb1ab7d
/conv1/Conv_output_0: 3d4f2bc5
/Relu_output_0: 3d4f0087
/layer1/layer1.0/conv1/Conv_output_0: 3d206951
/layer1/layer1.0/Relu_output_0: 3d1ca937
/layer1/layer1.0/conv2/Conv_output_0: 3d33db3b
/layer1/layer1.0/Add_output_0: 3d575ff4
/layer1/layer1.0/Relu_1_output_0: 3d575ff4
/layer1/layer1.1/conv1/Conv_output_0: 3d1c6469
/layer1/layer1.1/Relu_output_0: 3ce7a5be
/layer1/layer1.1/conv2/Conv_output_0: 3d11465c
/layer1/layer1.1/Add_output_0: 3d8a145f
/layer1/layer1.1/Relu_1_output_0: 3d93bad9
/layer1/layer1.2/conv1/Conv_output_0: 3d0e1c8a
/layer1/layer1.2/Relu_output_0: 3cbb880c
/layer1/layer1.2/conv2/Conv_output_0: 3cffa4c7
/layer1/layer1.2/Add_output_0: 3d95d3f6
/layer1/layer1.2/Relu_1_output_0: 3d95d3f6
/layer1/layer1.3/conv1/Conv_output_0: 3cf8c1f0
/layer1/layer1.3/Relu_output_0: 3c90243f
/layer1/layer1.3/conv2/Conv_output_0: 3cef5aaa
/layer1/layer1.3/Add_output_0: 3db3536a
/layer1/layer1.3/Relu_1_output_0: 3db3536a
/layer1/layer1.4/conv1/Conv_output_0: 3d163130
/layer1/layer1.4/Relu_output_0: 3cea7646
/layer1/layer1.4/conv2/Conv_output_0: 3d68ccbc
/layer1/layer1.4/Add_output_0: 3db5da2a
/layer1/layer1.4/Relu_1_output_0: 3db5da2a
/layer2/layer2.0/conv1/Conv_output_0: 3d1463a3
/layer2/layer2.0/Relu_output_0: 3d1463a3
/layer2/layer2.0/conv2/Conv_output_0: 3d3d62b4
/layer2/layer2.0/shortcut/shortcut.0/Conv_output_0: 3d1426a4
/layer2/layer2.0/Add_output_0: 3d9aa7a6
/layer2/layer2.0/Relu_1_output_0: 3da516c9
/layer2/layer2.1/conv1/Conv_output_0: 3cfe6a7d
/layer2/layer2.1/Relu_output_0: 3cd646e5
/layer2/layer2.1/conv2/Conv_output_0: 3cf6fab0
/layer2/layer2.1/Add_output_0: 3da7c1d1
/layer2/layer2.1/Relu_1_output_0: 3dad2bef
/layer2/layer2.2/conv1/Conv_output_0: 3cf0b0b9
/layer2/layer2.2/Relu_output_0: 3cd1b339
/layer2/layer2.2/conv2/Conv_output_0: 3d0b6ecf
/layer2/layer2.2/Add_output_0: 3da08df8
/layer2/layer2.2/Relu_1_output_0: 3dac0442
/layer2/layer2.3/conv1/Conv_output_0: 3cefefab
/layer2/layer2.3/Relu_output_0: 3cc675a4
/layer2/layer2.3/conv2/Conv_output_0: 3d137544
/layer2/layer2.3/Add_output_0: 3dae8cf5
/layer2/layer2.3/Relu_1_output_0: 3dbfc184
/layer2/layer2.4/conv1/Conv_output_0: 3cd5fef6
/layer2/layer2.4/Relu_output_0: 3cd02728
/layer2/layer2.4/conv2/Conv_output_0: 3d190fab
/layer2/layer2.4/Add_output_0: 3da887e1
/layer2/layer2.4/Relu_1_output_0: 3dc0be6e
/layer3/layer3.0/conv1/Conv_output_0: 3d0bb082
/layer3/layer3.0/Relu_output_0: 3d055d36
/layer3/layer3.0/conv2/Conv_output_0: 3d490eb1
/layer3/layer3.0/shortcut/shortcut.0/Conv_output_0: 3ce8a3fa
/layer3/layer3.0/Add_output_0: 3d84bd08
/layer3/layer3.0/Relu_1_output_0: 3d957d67
/layer3/layer3.1/conv1/Conv_output_0: 3d0614ea
/layer3/layer3.1/Relu_output_0: 3d019d7e
/layer3/layer3.1/conv2/Conv_output_0: 3d5033fc
/layer3/layer3.1/Add_output_0: 3d8aa4c6
/layer3/layer3.1/Relu_1_output_0: 3d93aa95
/layer3/layer3.2/conv1/Conv_output_0: 3d08cd4e
/layer3/layer3.2/Relu_output_0: 3d076151
/layer3/layer3.2/conv2/Conv_output_0: 3d79281c
/layer3/layer3.2/Add_output_0: 3db5daa6
/layer3/layer3.2/Relu_1_output_0: 3df2dad2
/layer3/layer3.3/conv1/Conv_output_0: 3d2aa11f
/layer3/layer3.3/Relu_output_0: 3d39914f
/layer3/layer3.3/conv2/Conv_output_0: 3d713eb7
/layer3/layer3.3/Add_output_0: 3e1d05e8
/layer3/layer3.3/Relu_1_output_0: 3e1c6998
/layer3/layer3.4/conv1/Conv_output_0: 3cbf5b19
/layer3/layer3.4/Relu_output_0: 3cdba83f
/layer3/layer3.4/conv2/Conv_output_0: 3c478364
/layer3/layer3.4/Add_output_0: 3e0a69e1
/layer3/layer3.4/Relu_1_output_0: 3e1bdacf
/avgpool/GlobalAveragePool_output_0: 3d550aab
/Reshape_output_0: 3d550aab
fc.weight_output: 3bf699d7
/fc/Gemm_output: 3e440d94
fc.bias_output: 3a39dfba
ONNXTRT_Broadcast_output: 3a39dfba
logits: 3e322347
