TRT-101401-EntropyCalibration2
input: 3cbaab4e
/features/features.0/Conv_output_0: 3d3a20fc
/features/features.2/Relu_output_0: 3d4263a6
/features/features.3/MaxPool_output_0: 3d4263a6
/features/features.4/Conv_output_0: 3d3c8285
/features/features.6/Relu_output_0: 3ce1b92b
/features/features.7/MaxPool_output_0: 3ce1b92b
/features/features.8/Conv_output_0: 3d2b6a3a
/features/features.10/Relu_output_0: 3cc261c3
/features/features.11/Conv_output_0: 3ce27fa6
/features/features.13/Relu_output_0: 3c8c95fd
/features/features.14/Conv_output_0: 3d44ac0f
/features/features.16/Relu_output_0: 3d63fe98
/features/features.17/MaxPool_output_0: 3d63fe98
/global_avg_pool/GlobalAveragePool_output_0: 3c57899f
/Flatten_output_0: 3c57899f
classifier.0.weight_output: 3b783233
/classifier/classifier.0/Gemm_output: 3d044bf7
classifier.0.bias_output: 3ad960fd
ONNXTRT_Broadcast_output: 3ad960fd
/classifier/classifier.0/Gemm_output_0: 3d27831c
/classifier/classifier.1/Relu_output_0: 3d302836
classifier.2.weight_output: 3bcf4e11
/classifier/classifier.2/Gemm_output: 3e1ebc80
classifier.2.bias_output: 3a0e22f3
ONNXTRT_Broadcast_2_output: 3a0e22f3
logits: 3e0e0979
