TRT-101401-EntropyCalibration2
input: 3cb1ab7d
/features/features.0/Conv_output_0: 3d3d3a1d
/features/features.2/Relu_output_0: 3d3da276
/features/features.3/MaxPool_output_0: 3d3da276
/features/features.4/Conv_output_0: 3d301ae8
/features/features.6/Relu_output_0: 3ce1dd68
/features/features.7/MaxPool_output_0: 3ce1dd68
/features/features.8/Conv_output_0: 3d1b1abd
/features/features.10/Relu_output_0: 3cc7a837
/features/features.11/Conv_output_0: 3cd2263d
/features/features.13/Relu_output_0: 3c956d28
/features/features.14/Conv_output_0: 3d33212b
/features/features.16/Relu_output_0: 3d7facb8
/features/features.17/MaxPool_output_0: 3d7facb8
/global_avg_pool/GlobalAveragePool_output_0: 3c7bfd85
/Flatten_output_0: 3c7bfd85
classifier.0.weight_output: 3b783233
/classifier/classifier.0/Gemm_output: 3d0d88d2
classifier.0.bias_output: 3ad960fd
ONNXTRT_Broadcast_output: 3ad960fd
/classifier/classifier.0/Gemm_output_0: 3d2563d9
/classifier/classifier.1/Relu_output_0: 3d434167
classifier.2.weight_output: 3bcf4e11
/classifier/classifier.2/Gemm_output: 3e68cf67
classifier.2.bias_output: 3a0e22f3
ONNXTRT_Broadcast_2_output: 3a0e22f3
logits: 3e3e8ce5
