TRT-101401-EntropyCalibration2
input: 3cbaab4e
/conv1/Conv_output_0: 3d3d653e
/relu/Relu_output_0: 3d3d653e
/maxpool1/MaxPool_output_0: 3d3d653e
/fire2/conv1/Conv_output_0: 3d5bab17
/fire2/relu1/Relu_output_0: 3cef0f2b
/fire2/conv2/Conv_output_0: 3cfd0905
/fire2/conv3/Conv_output_0: 3d0227f4
/fire2/Concat_output_0: 3d0227f4
/fire2/relu2/Relu_output_0: 3ce80b24
/fire3/conv1/Conv_output_0: 3d16d358
/fire3/relu1/Relu_output_0: 3d16d358
/fire3/conv2/Conv_output_0: 3cd8ae85
/fire3/conv3/Conv_output_0: 3d0647f8
/fire3/Concat_output_0: 3cf3633a
/fire3/relu2/Relu_output_0: 3cd922d5
/fire4/conv1/Conv_output_0: 3d059e06
/fire4/relu1/Relu_output_0: 3d059e06
/fire4/conv2/Conv_output_0: 3c6392ce
/fire4/conv3/Conv_output_0: 3ccdceac
/fire4/Concat_output_0: 3cc22491
/fire4/relu2/Relu_output_0: 3cc0997b
/maxpool2/MaxPool_output_0: 3cc0997b
/fire5/conv1/Conv_output_0: 3d2cf88a
/fire5/relu1/Relu_output_0: 3d2cf88a
/fire5/conv2/Conv_output_0: 3ca5339c
/fire5/conv3/Conv_output_0: 3cd43081
/fire5/Concat_output_0: 3cb4a462
/fire5/relu2/Relu_output_0: 3cb32923
/fire6/conv1/Conv_output_0: 3d0a9638
/fire6/relu1/Relu_output_0: 3d161329
/fire6/conv2/Conv_output_0: 3c578b18
/fire6/conv3/Conv_output_0: 3cc05e25
/fire6/Concat_output_0: 3cb21253
/fire6/relu2/Relu_output_0: 3ca90a9d
/fire7/conv1/Conv_output_0: 3d1b9f9b
/fire7/relu1/Relu_output_0: 3d15a8d2
/fire7/conv2/Conv_output_0: 3c52cef4
/fire7/conv3/Conv_output_0: 3cca3833
/fire7/Concat_output_0: 3cbcc370
/fire7/relu2/Relu_output_0: 3ca3f846
/fire8/conv1/Conv_output_0: 3d27f619
/fire8/relu1/Relu_output_0: 3d32034e
/fire8/conv2/Conv_output_0: 3c15f597
/fire8/conv3/Conv_output_0: 3ccdb2eb
/fire8/Concat_output_0: 3ce80f90
/fire8/relu2/Relu_output_0: 3cca2672
/maxpool3/MaxPool_output_0: 3cca2672
/fire9/conv1/Conv_output_0: 3d1e2ef2
/fire9/relu1/Relu_output_0: 3d285856
/fire9/conv2/Conv_output_0: 3bccdc56
/fire9/conv3/Conv_output_0: 3cf49064
/fire9/Concat_output_0: 3cf49064
/fire9/relu2/Relu_output_0: 3d1ef568
/conv10/Conv_output_0: 3e663ad2
/avg_pool/AveragePool_output_0: 3e663ad2
logits: 3e072c8b
