TRT-101401-EntropyCalibration2
input: 3cb1ab7d
/conv1/Conv_output_0: 3d25785c
/relu/Relu_output_0: 3d25c6a3
/maxpool1/MaxPool_output_0: 3d25c6a3
/fire2/conv1/Conv_output_0: 3d4ebe30
/fire2/relu1/Relu_output_0: 3cea52e2
/fire2/conv2/Conv_output_0: 3cf131a5
/fire2/conv3/Conv_output_0: 3cefc0b2
/fire2/Concat_output_0: 3cf0e35b
/fire2/relu2/Relu_output_0: 3ce98723
/fire3/conv1/Conv_output_0: 3d11ed1a
/fire3/relu1/Relu_output_0: 3d1a2b09
/fire3/conv2/Conv_output_0: 3cd2cd20
/fire3/conv3/Conv_output_0: 3ceb7c67
/fire3/Concat_output_0: 3ce4ba78
/fire3/relu2/Relu_output_0: 3cda2bcb
/fire4/conv1/Conv_output_0: 3d0bc26c
/fire4/relu1/Relu_output_0: 3d16e433
/fire4/conv2/Conv_output_0: 3c68bbb1
/fire4/conv3/Conv_output_0: 3cd030e9
/fire4/Concat_output_0: 3cc1e309
/fire4/relu2/Relu_output_0: 3cb02eb9
/maxpool2/MaxPool_output_0: 3cb02eb9
/fire5/conv1/Conv_output_0: 3d215142
/fire5/relu1/Relu_output_0: 3d215142
/fire5/conv2/Conv_output_0: 3c96ab66
/fire5/conv3/Conv_output_0: 3cce1b83
/fire5/Concat_output_0: 3cc3d78e
/fire5/relu2/Relu_output_0: 3cac6f1a
/fire6/conv1/Conv_output_0: 3d10d3c5
/fire6/relu1/Relu_output_0: 3d156074
/fire6/conv2/Conv_output_0: 3c5a4f88
/fire6/conv3/Conv_output_0: 3cbe223a
/fire6/Concat_output_0: 3cb627f4
/fire6/relu2/Relu_output_0: 3ca3f361
/fire7/conv1/Conv_output_0: 3d263029
/fire7/relu1/Relu_output_0: 3d35deec
/fire7/conv2/Conv_output_0: 3c9bef4e
/fire7/conv3/Conv_output_0: 3cd76ede
/fire7/Concat_output_0: 3cc8f8ad
/fire7/relu2/Relu_output_0: 3cad3ef6
/fire8/conv1/Conv_output_0: 3d2c1ce1
/fire8/relu1/Relu_output_0: 3d31f400
/fire8/conv2/Conv_output_0: 3c186bce
/fire8/conv3/Conv_output_0: 3cd28754
/fire8/Concat_output_0: 3cdc0838
/fire8/relu2/Relu_output_0: 3cca9beb
/maxpool3/MaxPool_output_0: 3cca9beb
/fire9/conv1/Conv_output_0: 3d3a4721
/fire9/relu1/Relu_output_0: 3d49cef6
/fire9/conv2/Conv_output_0: 3c3dab87
/fire9/conv3/Conv_output_0: 3d0b0f4a
/fire9/Concat_output_0: 3d0b0f4a
/fire9/relu2/Relu_output_0: 3d1d6220
/conv10/Conv_output_0: 3e8d43d5
/avg_pool/AveragePool_output_0: 3e8d43d5
logits: 3e49b57c
