TRT-101401-EntropyCalibration2
input: 3cb1ab7d
/conv1/Conv_output_0: 3d25785c
/relu/Relu_output_0: 3d253316
/maxpool1/MaxPool_output_0: 3d253316
/fire2/conv1/Conv_output_0: 3d4ebe30
/fire2/relu1/Relu_output_0: 3cea5d54
/fire2/conv2/Conv_output_0: 3cf131a5
/fire2/conv3/Conv_output_0: 3cf0b3de
/fire2/Concat_output_0: 3cf131a5
/fire2/relu2/Relu_output_0: 3ce9ea80
/fire3/conv1/Conv_output_0: 3d124321
/fire3/relu1/Relu_output_0: 3d124321
/fire3/conv2/Conv_output_0: 3cd25d03
/fire3/conv3/Conv_output_0: 3cfa1402
/fire3/Concat_output_0: 3ce4b251
/fire3/relu2/Relu_output_0: 3cd8a8ed
/fire4/conv1/Conv_output_0: 3d0bdf7e
/fire4/relu1/Relu_output_0: 3d13e712
/fire4/conv2/Conv_output_0: 3c72729f
/fire4/conv3/Conv_output_0: 3cd773ca
/fire4/Concat_output_0: 3cbc2bad
/fire4/relu2/Relu_output_0: 3cb02eb9
/maxpool2/MaxPool_output_0: 3cb02eb9
/fire5/conv1/Conv_output_0: 3d215142
/fire5/relu1/Relu_output_0: 3d215142
/fire5/conv2/Conv_output_0: 3c932544
/fire5/conv3/Conv_output_0: 3ccd506d
/fire5/Concat_output_0: 3cc08afc
/fire5/relu2/Relu_output_0: 3cac6f1a
/fire6/conv1/Conv_output_0: 3d10d3c5
/fire6/relu1/Relu_output_0: 3d156074
/fire6/conv2/Conv_output_0: 3c633c5e
/fire6/conv3/Conv_output_0: 3cc34433
/fire6/Concat_output_0: 3cb5ecb4
/fire6/relu2/Relu_output_0: 3cadd166
/fire7/conv1/Conv_output_0: 3d265309
/fire7/relu1/Relu_output_0: 3d35978a
/fire7/conv2/Conv_output_0: 3c91a8f9
/fire7/conv3/Conv_output_0: 3cd8877d
/fire7/Concat_output_0: 3cc96cd9
/fire7/relu2/Relu_output_0: 3cad3ef6
/fire8/conv1/Conv_output_0: 3d2afd18
/fire8/relu1/Relu_output_0: 3d28b65a
/fire8/conv2/Conv_output_0: 3c1e86b7
/fire8/conv3/Conv_output_0: 3cd3f545
/fire8/Concat_output_0: 3cd431ba
/fire8/relu2/Relu_output_0: 3cd24e10
/maxpool3/MaxPool_output_0: 3cd24e10
/fire9/conv1/Conv_output_0: 3d3bafde
/fire9/relu1/Relu_output_0: 3d5a140c
/fire9/conv2/Conv_output_0: 3c3dab87
/fire9/conv3/Conv_output_0: 3d07f9a6
/fire9/Concat_output_0: 3d07f9a6
/fire9/relu2/Relu_output_0: 3d2ecdb7
/conv10/Conv_output_0: 3e843ffd
/avg_pool/AveragePool_output_0: 3e843ffd
logits: 3e49a5ad
