TRT-101401-EntropyCalibration2
input: 3cb1ab7d
/conv1/Conv_output_0: 3d2b23c6
/Relu_output_0: 3d2af88b
/layer1/layer1.0/conv1/Conv_output_0: 3d1f6ef3
/layer1/layer1.0/Relu_output_0: 3d058080
/layer1/layer1.0/conv2/Conv_output_0: 3d36cff4
/layer1/layer1.0/Add_output_0: 3d596a2f
/layer1/layer1.0/Relu_1_output_0: 3d677cb8
/layer1/layer1.1/conv1/Conv_output_0: 3d163f70
/layer1/layer1.1/Relu_output_0: 3cf4e127
/layer1/layer1.1/conv2/Conv_output_0: 3d119acb
/layer1/layer1.1/Add_output_0: 3d92d753
/layer1/layer1.1/Relu_1_output_0: 3d96f371
/layer1/layer1.2/conv1/Conv_output_0: 3d0c76e1
/layer1/layer1.2/Relu_output_0: 3cccf991
/layer1/layer1.2/conv2/Conv_output_0: 3d0d1cf5
/layer1/layer1.2/Add_output_0: 3da51e1e
/layer1/layer1.2/Relu_1_output_0: 3da51e1e
/layer1/layer1.3/conv1/Conv_output_0: 3cfcf1c5
/layer1/layer1.3/Relu_output_0: 3c99e720
/layer1/layer1.3/conv2/Conv_output_0: 3d01c2c9
/layer1/layer1.3/Add_output_0: 3dbca72b
/layer1/layer1.3/Relu_1_output_0: 3dc0fe0b
/layer1/layer1.4/conv1/Conv_output_0: 3d1de14d
/layer1/layer1.4/Relu_output_0: 3cf6bfd7
/layer1/layer1.4/conv2/Conv_output_0: 3d5d7c2d
/layer1/layer1.4/Add_output_0: 3dbc5847
/layer1/layer1.4/Relu_1_output_0: 3dbf7a8b
/layer2/layer2.0/conv1/Conv_output_0: 3d15890b
/layer2/layer2.0/Relu_output_0: 3d1ab4a5
/layer2/layer2.0/conv2/Conv_output_0: 3d3ba615
/layer2/layer2.0/shortcut/shortcut.0/Conv_output_0: 3d22517d
/layer2/layer2.0/Add_output_0: 3d9be01f
/layer2/layer2.0/Relu_1_output_0: 3da7500d
/layer2/layer2.1/conv1/Conv_output_0: 3d03d5df
/layer2/layer2.1/Relu_output_0: 3cdbb974
/layer2/layer2.1/conv2/Conv_output_0: 3d032be5
/layer2/layer2.1/Add_output_0: 3dadb8c2
/layer2/layer2.1/Relu_1_output_0: 3db388f8
/layer2/layer2.2/conv1/Conv_output_0: 3cf76d8c
/layer2/layer2.2/Relu_output_0: 3cd6793f
/layer2/layer2.2/conv2/Conv_output_0: 3d0cb9f1
/layer2/layer2.2/Add_output_0: 3da2968b
/layer2/layer2.2/Relu_1_output_0: 3db49a76
/layer2/layer2.3/conv1/Conv_output_0: 3cf88818
/layer2/layer2.3/Relu_output_0: 3cc4c095
/layer2/layer2.3/conv2/Conv_output_0: 3d1c0ea3
/layer2/layer2.3/Add_output_0: 3dbad2a5
/layer2/layer2.3/Relu_1_output_0: 3dd02783
/layer2/layer2.4/conv1/Conv_output_0: 3ce6548a
/layer2/layer2.4/Relu_output_0: 3ce5f952
/layer2/layer2.4/conv2/Conv_output_0: 3d253dbf
/layer2/layer2.4/Add_output_0: 3dc1e028
/layer2/layer2.4/Relu_1_output_0: 3de7e578
/layer3/layer3.0/conv1/Conv_output_0: 3d1408ea
/layer3/layer3.0/Relu_output_0: 3d139368
/layer3/layer3.0/conv2/Conv_output_0: 3d4cf22f
/layer3/layer3.0/shortcut/shortcut.0/Conv_output_0: 3cf7f665
/layer3/layer3.0/Add_output_0: 3d9a62aa
/layer3/layer3.0/Relu_1_output_0: 3d9a62aa
/layer3/layer3.1/conv1/Conv_output_0: 3d0adc21
/layer3/layer3.1/Relu_output_0: 3cf4abf8
/layer3/layer3.1/conv2/Conv_output_0: 3d5692d5
/layer3/layer3.1/Add_output_0: 3d965b7e
/layer3/layer3.1/Relu_1_output_0: 3db29900
/layer3/layer3.2/conv1/Conv_output_0: 3ccbcf3f
/layer3/layer3.2/Relu_output_0: 3d08d410
/layer3/layer3.2/conv2/Conv_output_0: 3d6344e2
/layer3/layer3.2/Add_output_0: 3dc1f43a
/layer3/layer3.2/Relu_1_output_0: 3df70a48
/layer3/layer3.3/conv1/Conv_output_0: 3d13b5ff
/layer3/layer3.3/Relu_output_0: 3d4456d9
/layer3/layer3.3/conv2/Conv_output_0: 3d5d9f88
/layer3/layer3.3/Add_output_0: 3df749e8
/layer3/layer3.3/Relu_1_output_0: 3e1a8678
/layer3/layer3.4/conv1/Conv_output_0: 3c549f03
/layer3/layer3.4/Relu_output_0: 3cd47b9f
/layer3/layer3.4/conv2/Conv_output_0: 3c82a331
/layer3/layer3.4/Add_output_0: 3e052bb3
/layer3/layer3.4/Relu_1_output_0: 3e1a1a4a
/avgpool/GlobalAveragePool_output_0: 3d505bae
/Reshape_output_0: 3d505bae
fc.weight_output: 3bd06263
/fc/Gemm_output: 3e4c3161
fc.bias_output: 3a22707e
ONNXTRT_Broadcast_output: 3a22707e
logits: 3e544a66
