TRT-101401-EntropyCalibration2
input: 3cb1ab7d
/features/features.0/Conv_output_0: 3d3146d1
/features/features.2/Relu_output_0: 3d31de02
/features/features.3/MaxPool_output_0: 3d31de02
/features/features.4/Conv_output_0: 3d31829f
/features/features.6/Relu_output_0: 3ce47618
/features/features.7/MaxPool_output_0: 3ce47618
/features/features.8/Conv_output_0: 3d1998b4
/features/features.10/Relu_output_0: 3ccf694f
/features/features.11/Conv_output_0: 3cbf4404
/features/features.13/Relu_output_0: 3c8e55e6
/features/features.14/Conv_output_0: 3d6910fc
/features/features.16/Relu_output_0: 3d840f66
/features/features.17/MaxPool_output_0: 3d840f66
/global_avg_pool/GlobalAveragePool_output_0: 3c81b113
/Flatten_output_0: 3c81b113
classifier.0.weight_output: 3b869913
/classifier/classifier.0/Gemm_output: 3d290deb
classifier.0.bias_output: 3ac5ed10
ONNXTRT_Broadcast_output: 3ac5ed10
/classifier/classifier.0/Gemm_output_0: 3d15a77d
/classifier/classifier.1/Relu_output_0: 3d6a374c
classifier.2.weight_output: 3bcd174a
/classifier/classifier.2/Gemm_output: 3e5f3dbc
classifier.2.bias_output: 3a0bd42b
ONNXTRT_Broadcast_2_output: 3a0bd42b
logits: 3e66958e
