TRT-101401-EntropyCalibration2
input: 3cb1ab7d
/features/features.0/Conv_output_0: 3d31cad7
/features/features.2/Relu_output_0: 3d316050
/features/features.3/MaxPool_output_0: 3d316050
/features/features.4/Conv_output_0: 3d31829f
/features/features.6/Relu_output_0: 3ce47618
/features/features.7/MaxPool_output_0: 3ce47618
/features/features.8/Conv_output_0: 3d1a0f61
/features/features.10/Relu_output_0: 3ccfd8d7
/features/features.11/Conv_output_0: 3cc023c5
/features/features.13/Relu_output_0: 3c8e1df6
/features/features.14/Conv_output_0: 3d6910fc
/features/features.16/Relu_output_0: 3d840f66
/features/features.17/MaxPool_output_0: 3d840f66
/global_avg_pool/GlobalAveragePool_output_0: 3c82282d
/Flatten_output_0: 3c82282d
classifier.0.weight_output: 3b869913
/classifier/classifier.0/Gemm_output: 3d290dea
classifier.0.bias_output: 3ac5ed10
ONNXTRT_Broadcast_output: 3ac5ed10
/classifier/classifier.0/Gemm_output_0: 3d15a77c
/classifier/classifier.1/Relu_output_0: 3d6a374b
classifier.2.weight_output: 3bcd174a
/classifier/classifier.2/Gemm_output: 3e5f3dbd
classifier.2.bias_output: 3a0bd42b
ONNXTRT_Broadcast_2_output: 3a0bd42b
logits: 3e66958f
