TRT-101401-EntropyCalibration2
input: 3cbaab4e
/features/features.0/Conv_output_0: 3d3e653d
/features/features.2/Relu_output_0: 3d3dbfb1
/features/features.3/MaxPool_output_0: 3d3dbfb1
/features/features.4/Conv_output_0: 3d29421c
/features/features.6/Relu_output_0: 3ce0b404
/features/features.7/MaxPool_output_0: 3ce0b404
/features/features.8/Conv_output_0: 3d265be8
/features/features.10/Relu_output_0: 3ce4baa7
/features/features.11/Conv_output_0: 3cd21687
/features/features.13/Relu_output_0: 3c9e1e03
/features/features.14/Conv_output_0: 3d5c2327
/features/features.16/Relu_output_0: 3d6790e7
/features/features.17/MaxPool_output_0: 3d6790e7
/global_avg_pool/GlobalAveragePool_output_0: 3c6d4559
/Flatten_output_0: 3c6d4559
classifier.0.weight_output: 3b869913
/classifier/classifier.0/Gemm_output: 3d0d68db
classifier.0.bias_output: 3ac5ed10
ONNXTRT_Broadcast_output: 3ac5ed10
/classifier/classifier.0/Gemm_output_0: 3d159e12
/classifier/classifier.1/Relu_output_0: 3d2af2e7
classifier.2.weight_output: 3bcd174a
/classifier/classifier.2/Gemm_output: 3e328297
classifier.2.bias_output: 3a0bd42b
ONNXTRT_Broadcast_2_output: 3a0bd42b
logits: 3e3872a3
