TRT-101401-EntropyCalibration2
input: 3cb1ab7d
/conv1/Conv_output_0: 3d35349e
/Relu_output_0: 3d330576
/layer1/layer1.0/conv1/Conv_output_0: 3d2c3d81
/layer1/layer1.0/Relu_output_0: 3d159cef
/layer1/layer1.0/conv2/Conv_output_0: 3d37bcb5
/layer1/layer1.0/Add_output_0: 3d629957
/layer1/layer1.0/Relu_1_output_0: 3d56b3ec
/layer1/layer1.1/conv1/Conv_output_0: 3d2193af
/layer1/layer1.1/Relu_output_0: 3ceb0bc7
/layer1/layer1.1/conv2/Conv_output_0: 3d10de3c
/layer1/layer1.1/Add_output_0: 3d8c30ba
/layer1/layer1.1/Relu_1_output_0: 3d8d26ae
/layer1/layer1.2/conv1/Conv_output_0: 3d090d46
/layer1/layer1.2/Relu_output_0: 3cbeb46d
/layer1/layer1.2/conv2/Conv_output_0: 3d1384c2
/layer1/layer1.2/Add_output_0: 3d9b50ec
/layer1/layer1.2/Relu_1_output_0: 3d9bd9f3
/layer1/layer1.3/conv1/Conv_output_0: 3d02af50
/layer1/layer1.3/Relu_output_0: 3c946e1a
/layer1/layer1.3/conv2/Conv_output_0: 3cefdffd
/layer1/layer1.3/Add_output_0: 3db730f8
/layer1/layer1.3/Relu_1_output_0: 3db8005d
/layer1/layer1.4/conv1/Conv_output_0: 3d1bbe52
/layer1/layer1.4/Relu_output_0: 3ceca2f1
/layer1/layer1.4/conv2/Conv_output_0: 3d656b64
/layer1/layer1.4/Add_output_0: 3dc01fc5
/layer1/layer1.4/Relu_1_output_0: 3dc01fc5
/layer2/layer2.0/conv1/Conv_output_0: 3d121b73
/layer2/layer2.0/Relu_output_0: 3d1240c3
/layer2/layer2.0/conv2/Conv_output_0: 3d3ca937
/layer2/layer2.0/shortcut/shortcut.0/Conv_output_0: 3d168827
/layer2/layer2.0/Add_output_0: 3d9baa34
/layer2/layer2.0/Relu_1_output_0: 3da7cde7
/layer2/layer2.1/conv1/Conv_output_0: 3d0536eb
/layer2/layer2.1/Relu_output_0: 3cd868ee
/layer2/layer2.1/conv2/Conv_output_0: 3d0450b1
/layer2/layer2.1/Add_output_0: 3da1f34d
/layer2/layer2.1/Relu_1_output_0: 3db5dbb5
/layer2/layer2.2/conv1/Conv_output_0: 3cf8647a
/layer2/layer2.2/Relu_output_0: 3cd20328
/layer2/layer2.2/conv2/Conv_output_0: 3d0da51b
/layer2/layer2.2/Add_output_0: 3da083b5
/layer2/layer2.2/Relu_1_output_0: 3dac8e21
/layer2/layer2.3/conv1/Conv_output_0: 3cee9541
/layer2/layer2.3/Relu_output_0: 3ce0ca4f
/layer2/layer2.3/conv2/Conv_output_0: 3d1a00bc
/layer2/layer2.3/Add_output_0: 3db34264
/layer2/layer2.3/Relu_1_output_0: 3dc57254
/layer2/layer2.4/conv1/Conv_output_0: 3ce106c6
/layer2/layer2.4/Relu_output_0: 3cd3465c
/layer2/layer2.4/conv2/Conv_output_0: 3d154ebd
/layer2/layer2.4/Add_output_0: 3db7ee0f
/layer2/layer2.4/Relu_1_output_0: 3de14e5b
/layer3/layer3.0/conv1/Conv_output_0: 3d0032d3
/layer3/layer3.0/Relu_output_0: 3d0893a4
/layer3/layer3.0/conv2/Conv_output_0: 3d46a792
/layer3/layer3.0/shortcut/shortcut.0/Conv_output_0: 3ceafd58
/layer3/layer3.0/Add_output_0: 3d8e28b6
/layer3/layer3.0/Relu_1_output_0: 3d99a632
/layer3/layer3.1/conv1/Conv_output_0: 3d0927ac
/layer3/layer3.1/Relu_output_0: 3cebcd6c
/layer3/layer3.1/conv2/Conv_output_0: 3d567743
/layer3/layer3.1/Add_output_0: 3d898343
/layer3/layer3.1/Relu_1_output_0: 3d9cff50
/layer3/layer3.2/conv1/Conv_output_0: 3cc36687
/layer3/layer3.2/Relu_output_0: 3d024058
/layer3/layer3.2/conv2/Conv_output_0: 3d50a329
/layer3/layer3.2/Add_output_0: 3d92c76e
/layer3/layer3.2/Relu_1_output_0: 3df63cdb
/layer3/layer3.3/conv1/Conv_output_0: 3d1e1f0d
/layer3/layer3.3/Relu_output_0: 3d1d774c
/layer3/layer3.3/conv2/Conv_output_0: 3d450a53
/layer3/layer3.3/Add_output_0: 3dfe2c31
/layer3/layer3.3/Relu_1_output_0: 3e1073bf
/layer3/layer3.4/conv1/Conv_output_0: 3c9212ee
/layer3/layer3.4/Relu_output_0: 3ca6ee15
/layer3/layer3.4/conv2/Conv_output_0: 3be690ab
/layer3/layer3.4/Add_output_0: 3e015fa6
/layer3/layer3.4/Relu_1_output_0: 3e1049d0
/avgpool/GlobalAveragePool_output_0: 3d30c6f1
/Reshape_output_0: 3d30c6f1
fc.weight_output: 3c020430
/fc/Gemm_output: 3e419f2c
fc.bias_output: 3a254e69
ONNXTRT_Broadcast_output: 3a254e69
logits: 3e325021
