TRT-101401-EntropyCalibration2
input: 3cb1ab7d
/conv1/Conv_output_0: 3d3575dd
/Relu_output_0: 3d370872
/layer1/layer1.0/conv1/Conv_output_0: 3d2c3d81
/layer1/layer1.0/Relu_output_0: 3d159cef
/layer1/layer1.0/conv2/Conv_output_0: 3d363e62
/layer1/layer1.0/Add_output_0: 3d62425a
/layer1/layer1.0/Relu_1_output_0: 3d62425a
/layer1/layer1.1/conv1/Conv_output_0: 3d1ba080
/layer1/layer1.1/Relu_output_0: 3ceac81d
/layer1/layer1.1/conv2/Conv_output_0: 3d10de3c
/layer1/layer1.1/Add_output_0: 3d8c30ba
/layer1/layer1.1/Relu_1_output_0: 3d8d26ae
/layer1/layer1.2/conv1/Conv_output_0: 3d090d46
/layer1/layer1.2/Relu_output_0: 3cbe9077
/layer1/layer1.2/conv2/Conv_output_0: 3d0ba3c8
/layer1/layer1.2/Add_output_0: 3d9b50ec
/layer1/layer1.2/Relu_1_output_0: 3d9bd9f3
/layer1/layer1.3/conv1/Conv_output_0: 3d02af50
/layer1/layer1.3/Relu_output_0: 3c946e1a
/layer1/layer1.3/conv2/Conv_output_0: 3cefdffd
/layer1/layer1.3/Add_output_0: 3db730f8
/layer1/layer1.3/Relu_1_output_0: 3db8005d
/layer1/layer1.4/conv1/Conv_output_0: 3d171c50
/layer1/layer1.4/Relu_output_0: 3ceca2f1
/layer1/layer1.4/conv2/Conv_output_0: 3d656b64
/layer1/layer1.4/Add_output_0: 3dc01fc5
/layer1/layer1.4/Relu_1_output_0: 3dc01fc5
/layer2/layer2.0/conv1/Conv_output_0: 3d121b73
/layer2/layer2.0/Relu_output_0: 3d1240c3
/layer2/layer2.0/conv2/Conv_output_0: 3d45b8c4
/layer2/layer2.0/shortcut/shortcut.0/Conv_output_0: 3d168827
/layer2/layer2.0/Add_output_0: 3d9baa34
/layer2/layer2.0/Relu_1_output_0: 3da7cde7
/layer2/layer2.1/conv1/Conv_output_0: 3d0536eb
/layer2/layer2.1/Relu_output_0: 3cd868ee
/layer2/layer2.1/conv2/Conv_output_0: 3d04d6cc
/layer2/layer2.1/Add_output_0: 3da413be
/layer2/layer2.1/Relu_1_output_0: 3db57fdb
/layer2/layer2.2/conv1/Conv_output_0: 3cfd77cd
/layer2/layer2.2/Relu_output_0: 3cd20328
/layer2/layer2.2/conv2/Conv_output_0: 3d0df700
/layer2/layer2.2/Add_output_0: 3da08b19
/layer2/layer2.2/Relu_1_output_0: 3dab2e65
/layer2/layer2.3/conv1/Conv_output_0: 3ceee885
/layer2/layer2.3/Relu_output_0: 3cdfbe3b
/layer2/layer2.3/conv2/Conv_output_0: 3d1619d0
/layer2/layer2.3/Add_output_0: 3dacb9ff
/layer2/layer2.3/Relu_1_output_0: 3dc8316e
/layer2/layer2.4/conv1/Conv_output_0: 3ce106c6
/layer2/layer2.4/Relu_output_0: 3ccdc964
/layer2/layer2.4/conv2/Conv_output_0: 3d1f1392
/layer2/layer2.4/Add_output_0: 3db7e992
/layer2/layer2.4/Relu_1_output_0: 3dcdb092
/layer3/layer3.0/conv1/Conv_output_0: 3d0505a4
/layer3/layer3.0/Relu_output_0: 3d083c97
/layer3/layer3.0/conv2/Conv_output_0: 3d46a792
/layer3/layer3.0/shortcut/shortcut.0/Conv_output_0: 3ceac914
/layer3/layer3.0/Add_output_0: 3d8e199d
/layer3/layer3.0/Relu_1_output_0: 3d9957c4
/layer3/layer3.1/conv1/Conv_output_0: 3d0927ac
/layer3/layer3.1/Relu_output_0: 3ceca151
/layer3/layer3.1/conv2/Conv_output_0: 3d567743
/layer3/layer3.1/Add_output_0: 3d89e900
/layer3/layer3.1/Relu_1_output_0: 3da0600a
/layer3/layer3.2/conv1/Conv_output_0: 3caa6416
/layer3/layer3.2/Relu_output_0: 3d024058
/layer3/layer3.2/conv2/Conv_output_0: 3d50cf8e
/layer3/layer3.2/Add_output_0: 3d92c76e
/layer3/layer3.2/Relu_1_output_0: 3df63cdb
/layer3/layer3.3/conv1/Conv_output_0: 3d1de58a
/layer3/layer3.3/Relu_output_0: 3d1d85b2
/layer3/layer3.3/conv2/Conv_output_0: 3d428ea2
/layer3/layer3.3/Add_output_0: 3dfe2c31
/layer3/layer3.3/Relu_1_output_0: 3e1073bf
/layer3/layer3.4/conv1/Conv_output_0: 3c9ad02b
/layer3/layer3.4/Relu_output_0: 3cb0eabf
/layer3/layer3.4/conv2/Conv_output_0: 3c025223
/layer3/layer3.4/Add_output_0: 3e015fa6
/layer3/layer3.4/Relu_1_output_0: 3e1049d0
/avgpool/GlobalAveragePool_output_0: 3d3a2086
/Reshape_output_0: 3d3a2086
fc.weight_output: 3c020430
/fc/Gemm_output: 3e415973
fc.bias_output: 3a254e69
ONNXTRT_Broadcast_output: 3a254e69
logits: 3e3292ec
