TRT-101401-EntropyCalibration2
input: 3cbaab4e
/conv1/Conv_output_0: 3d34a2f3
/Relu_output_0: 3d34a2f3
/layer1/layer1.0/conv1/Conv_output_0: 3d144a85
/layer1/layer1.0/Relu_output_0: 3d08dd11
/layer1/layer1.0/conv2/Conv_output_0: 3d33230c
/layer1/layer1.0/Add_output_0: 3d5491a8
/layer1/layer1.0/Relu_1_output_0: 3d5491a8
/layer1/layer1.1/conv1/Conv_output_0: 3d2700a3
/layer1/layer1.1/Relu_output_0: 3cec4429
/layer1/layer1.1/conv2/Conv_output_0: 3d16086c
/layer1/layer1.1/Add_output_0: 3d8a6450
/layer1/layer1.1/Relu_1_output_0: 3d9307b4
/layer1/layer1.2/conv1/Conv_output_0: 3d0bb162
/layer1/layer1.2/Relu_output_0: 3cc0ca1a
/layer1/layer1.2/conv2/Conv_output_0: 3d0f32e9
/layer1/layer1.2/Add_output_0: 3da0525c
/layer1/layer1.2/Relu_1_output_0: 3da61e03
/layer1/layer1.3/conv1/Conv_output_0: 3d0273c3
/layer1/layer1.3/Relu_output_0: 3c91ca0a
/layer1/layer1.3/conv2/Conv_output_0: 3cf53108
/layer1/layer1.3/Add_output_0: 3db57917
/layer1/layer1.3/Relu_1_output_0: 3dc2115e
/layer1/layer1.4/conv1/Conv_output_0: 3d160caf
/layer1/layer1.4/Relu_output_0: 3ce0f527
/layer1/layer1.4/conv2/Conv_output_0: 3d55bace
/layer1/layer1.4/Add_output_0: 3dc9868d
/layer1/layer1.4/Relu_1_output_0: 3dc9868d
/layer2/layer2.0/conv1/Conv_output_0: 3d0c6c5c
/layer2/layer2.0/Relu_output_0: 3d0f5690
/layer2/layer2.0/conv2/Conv_output_0: 3d3948ec
/layer2/layer2.0/shortcut/shortcut.0/Conv_output_0: 3d0fda23
/layer2/layer2.0/Add_output_0: 3d9a5162
/layer2/layer2.0/Relu_1_output_0: 3d9a5162
/layer2/layer2.1/conv1/Conv_output_0: 3cf67d25
/layer2/layer2.1/Relu_output_0: 3ce23588
/layer2/layer2.1/conv2/Conv_output_0: 3cfafba1
/layer2/layer2.1/Add_output_0: 3da05018
/layer2/layer2.1/Relu_1_output_0: 3db29357
/layer2/layer2.2/conv1/Conv_output_0: 3ce63181
/layer2/layer2.2/Relu_output_0: 3cccfd63
/layer2/layer2.2/conv2/Conv_output_0: 3d112206
/layer2/layer2.2/Add_output_0: 3d9e4c28
/layer2/layer2.2/Relu_1_output_0: 3dab399a
/layer2/layer2.3/conv1/Conv_output_0: 3cfe0e16
/layer2/layer2.3/Relu_output_0: 3ccb655f
/layer2/layer2.3/conv2/Conv_output_0: 3d230e34
/layer2/layer2.3/Add_output_0: 3dafff5b
/layer2/layer2.3/Relu_1_output_0: 3dafff5b
/layer2/layer2.4/conv1/Conv_output_0: 3cd1aaee
/layer2/layer2.4/Relu_output_0: 3cc2ce12
/layer2/layer2.4/conv2/Conv_output_0: 3d0d0a4a
/layer2/layer2.4/Add_output_0: 3da30488
/layer2/layer2.4/Relu_1_output_0: 3dcef786
/layer3/layer3.0/conv1/Conv_output_0: 3d0c18fe
/layer3/layer3.0/Relu_output_0: 3d049c32
/layer3/layer3.0/conv2/Conv_output_0: 3d2b11dc
/layer3/layer3.0/shortcut/shortcut.0/Conv_output_0: 3cc19b62
/layer3/layer3.0/Add_output_0: 3d6a81db
/layer3/layer3.0/Relu_1_output_0: 3d7365cd
/layer3/layer3.1/conv1/Conv_output_0: 3d0c15e9
/layer3/layer3.1/Relu_output_0: 3cca7737
/layer3/layer3.1/conv2/Conv_output_0: 3d4b88f6
/layer3/layer3.1/Add_output_0: 3d8520d6
/layer3/layer3.1/Relu_1_output_0: 3d836787
/layer3/layer3.2/conv1/Conv_output_0: 3cc2f62c
/layer3/layer3.2/Relu_output_0: 3d031331
/layer3/layer3.2/conv2/Conv_output_0: 3d54a0e0
/layer3/layer3.2/Add_output_0: 3dca9e43
/layer3/layer3.2/Relu_1_output_0: 3de8ba88
/layer3/layer3.3/conv1/Conv_output_0: 3d0dfd22
/layer3/layer3.3/Relu_output_0: 3d0da354
/layer3/layer3.3/conv2/Conv_output_0: 3d35ac77
/layer3/layer3.3/Add_output_0: 3dea238e
/layer3/layer3.3/Relu_1_output_0: 3e010e0f
/layer3/layer3.4/conv1/Conv_output_0: 3c8fe285
/layer3/layer3.4/Relu_output_0: 3c9e7444
/layer3/layer3.4/conv2/Conv_output_0: 3c023bbd
/layer3/layer3.4/Add_output_0: 3da3be47
/layer3/layer3.4/Relu_1_output_0: 3e0a38a5
/avgpool/GlobalAveragePool_output_0: 3d1aef12
/Reshape_output_0: 3d1aef12
fc.weight_output: 3c020430
/fc/Gemm_output: 3e1fa098
fc.bias_output: 3a254e69
ONNXTRT_Broadcast_output: 3a254e69
logits: 3e208509
