TRT-101401-EntropyCalibration2
input: 3cb1ab7d
/features/features.0/Conv_output_0: 3d424b90
/features/features.2/Relu_output_0: 3d4511bc
/features/features.3/MaxPool_output_0: 3d4511bc
/features/features.4/Conv_output_0: 3d2c0b35
/features/features.6/Relu_output_0: 3cee91be
/features/features.7/MaxPool_output_0: 3cee91be
/features/features.8/Conv_output_0: 3d223c91
/features/features.10/Relu_output_0: 3cd1b11b
/features/features.11/Conv_output_0: 3cc6f28c
/features/features.13/Relu_output_0: 3c8e7089
/features/features.14/Conv_output_0: 3ce32117
/features/features.16/Relu_output_0: 3d88274f
/features/features.17/MaxPool_output_0: 3d88274f
/global_avg_pool/GlobalAveragePool_output_0: 3c957fbf
/Flatten_output_0: 3c957fbf
classifier.0.weight_output: 3b3dc98b
/classifier/classifier.0/Gemm_output: 3cfd2911
classifier.0.bias_output: 3ac0ed3d
ONNXTRT_Broadcast_output: 3ac0ed3d
/classifier/classifier.0/Gemm_output_0: 3d000955
/classifier/classifier.1/Relu_output_0: 3d4acca2
classifier.2.weight_output: 3b9b991e
/classifier/classifier.2/Gemm_output: 3e634c01
classifier.2.bias_output: 3a10789a
ONNXTRT_Broadcast_2_output: 3a10789a
logits: 3e6324be
