TRT-101401-EntropyCalibration2
input: 3cbaab4e
/features/features.0/Conv_output_0: 3d3ecb70
/features/features.2/Relu_output_0: 3d4c4996
/features/features.3/MaxPool_output_0: 3d4c4996
/features/features.4/Conv_output_0: 3d2e93a2
/features/features.6/Relu_output_0: 3cf7f282
/features/features.7/MaxPool_output_0: 3cf7f282
/features/features.8/Conv_output_0: 3d2ed778
/features/features.10/Relu_output_0: 3cc89d8c
/features/features.11/Conv_output_0: 3ccb8573
/features/features.13/Relu_output_0: 3c950888
/features/features.14/Conv_output_0: 3d4a6890
/features/features.16/Relu_output_0: 3d7e8066
/features/features.17/MaxPool_output_0: 3d7e8066
/global_avg_pool/GlobalAveragePool_output_0: 3c7cdd2a
/Flatten_output_0: 3c7cdd2a
classifier.0.weight_output: 3b3dc98b
/classifier/classifier.0/Gemm_output: 3d023ac6
classifier.0.bias_output: 3ac0ed3d
ONNXTRT_Broadcast_output: 3ac0ed3d
/classifier/classifier.0/Gemm_output_0: 3cfc62f7
/classifier/classifier.1/Relu_output_0: 3d2c14ef
classifier.2.weight_output: 3b9b991e
/classifier/classifier.2/Gemm_output: 3e0791a7
classifier.2.bias_output: 3a10789a
ONNXTRT_Broadcast_2_output: 3a10789a
logits: 3e175317
